{
  "version": "1.0",
  "truncation": null,
  "padding": null,
  "added_tokens": [
    {
      "id": 0,
      "content": "[PAD]",
      "single_word": false,
      "lstrip": false,
      "rstrip": false,
      "normalized": false,
      "special": true
    },
    {
      "id": 1,
      "content": "[UNK]",
      "single_word": false,
      "lstrip": false,
      "rstrip": false,
      "normalized": false,
      "special": true
    },
    {
      "id": 2,
      "content": "[CLS]",
      "single_word": false,
      "lstrip": false,
      "rstrip": false,
      "normalized": false,
      "special": true
    },
    {
      "id": 3,
      "content": "[SEP]",
      "single_word": false,
      "lstrip": false,
      "rstrip": false,
      "normalized": false,
      "special": true
    },
    {
      "id": 4,
      "content": "[MASK]",
      "single_word": false,
      "lstrip": false,
      "rstrip": false,
      "normalized": false,
      "special": true
    }
  ],
  "normalizer": {
    "type": "BertNormalizer",
    "clean_text": true,
    "handle_chinese_chars": true,
    "strip_accents": null,
    "lowercase": false
  },
  "pre_tokenizer": {
    "type": "BertPreTokenizer"
  },
  "post_processor": {
    "type": "TemplateProcessing",
    "single": [
      {
        "SpecialToken": {
          "id": "[CLS]",
          "type_id": 0
        }
      },
      {
        "Sequence": {
          "id": "A",
          "type_id": 0
        }
      },
      {
        "SpecialToken": {
          "id": "[SEP]",
          "type_id": 0
        }
      }
    ],
    "pair": [
      {
        "SpecialToken": {
          "id": "[CLS]",
          "type_id": 0
        }
      },
      {
        "Sequence": {
          "id": "A",
          "type_id": 0
        }
      },
      {
        "SpecialToken": {
          "id": "[SEP]",
          "type_id": 0
        }
      },
      {
        "Sequence": {
          "id": "B",
          "type_id": 1
        }
      },
      {
        "SpecialToken": {
          "id": "[SEP]",
          "type_id": 1
        }
      }
    ],
    "special_tokens": {
      "[CLS]": {
        "id": "[CLS]",
        "ids": [
          2
        ],
        "tokens": [
          "[CLS]"
        ]
      },
      "[SEP]": {
        "id": "[SEP]",
        "ids": [
          3
        ],
        "tokens": [
          "[SEP]"
        ]
      }
    }
  },
  "decoder": {
    "type": "WordPiece",
    "prefix": "##",
    "cleanup": true
  },
  "model": {
    "type": "WordPiece",
    "unk_token": "[UNK]",
    "continuing_subword_prefix": "##",
    "max_input_chars_per_word": 100,
    "vocab": {
      "[PAD]": 0,
      "[UNK]": 1,
      "[CLS]": 2,
      "[SEP]": 3,
      "[MASK]": 4,
      "!": 5,
      "\"": 6,
      "#": 7,
      "$": 8,
      "%": 9,
      "&": 10,
      "'": 11,
      "(": 12,
      ")": 13,
      "*": 14,
      "+": 15,
      ",": 16,
      "-": 17,
      ".": 18,
      "/": 19,
      "0": 20,
      "1": 21,
      "2": 22,
      "3": 23,
      "4": 24,
      "5": 25,
      "6": 26,
      "7": 27,
      "8": 28,
      "9": 29,
      ":": 30,
      ";": 31,
      "<": 32,
      "=": 33,
      ">": 34,
      "?": 35,
      "@": 36,
      "A": 37,
      "B": 38,
      "C": 39,
      "D": 40,
      "E": 41,
      "F": 42,
      "G": 43,
      "H": 44,
      "I": 45,
      "J": 46,
      "K": 47,
      "L": 48,
      "M": 49,
      "N": 50,
      "O": 51,
      "P": 52,
      "Q": 53,
      "R": 54,
      "S": 55,
      "T": 56,
      "U": 57,
      "V": 58,
      "W": 59,
      "X": 60,
      "Y": 61,
      "Z": 62,
      "[": 63,
      "\\": 64,
      "]": 65,
      "^": 66,
      "_": 67,
      "`": 68,
      "a": 69,
      "b": 70,
      "c": 71,
      "d": 72,
      "e": 73,
      "f": 74,
      "g": 75,
      "h": 76,
      "i": 77,
      "j": 78,
      "k": 79,
      "l": 80,
      "m": 81,
      "n": 82,
      "o": 83,
      "p": 84,
      "q": 85,
      "r": 86,
      "s": 87,
      "t": 88,
      "u": 89,
      "v": 90,
      "w": 91,
      "x": 92,
      "y": 93,
      "z": 94,
      "{": 95,
      "|": 96,
      "}": 97,
      "~": 98,
      "¡": 99,
      "¢": 100,
      "£": 101,
      "¤": 102,
      "¥": 103,
      "¦": 104,
      "§": 105,
      "¨": 106,
      "©": 107,
      "ª": 108,
      "«": 109,
      "¬": 110,
      "®": 111,
      "¯": 112,
      "°": 113,
      "±": 114,
      "²": 115,
      "³": 116,
      "´": 117,
      "µ": 118,
      "¶": 119,
      "·": 120,
      "¸": 121,
      "¹": 122,
      "º": 123,
      "»": 124,
      "¼": 125,
      "½": 126,
      "¾": 127,
      "¿": 128,
      "Æ": 129,
      "Ð": 130,
      "×": 131,
      "Ø": 132,
      "Þ": 133,
      "ß": 134,
      "æ": 135,
      "ð": 136,
      "÷": 137,
      "ø": 138,
      "þ": 139,
      "Đ": 140,
      "đ": 141,
      "Ħ": 142,
      "ħ": 143,
      "ı": 144,
      "Ł": 145,
      "ł": 146,
      "ŋ": 147,
      "œ": 148,
      "Ə": 149,
      "Ɛ": 150,
      "ƒ": 151,
      "ƿ": 152,
      "ɐ": 153,
      "ɑ": 154,
      "ɔ": 155,
      "ɕ": 156,
      "ə": 157,
      "ɛ": 158,
      "ɡ": 159,
      "ɣ": 160,
      "ɪ": 161,
      "ɯ": 162,
      "ɾ": 163,
      "ʁ": 164,
      "ʃ": 165,
      "ʈ": 166,
      "ʊ": 167,
      "ʌ": 168,
      "ʎ": 169,
      "ʒ": 170,
      "ʔ": 171,
      "ʕ": 172,
      "ʰ": 173,
      "ʲ": 174,
      "ʷ": 175,
      "ʹ": 176,
      "ʻ": 177,
      "ʼ": 178,
      "ʾ": 179,
      "ʿ": 180,
      "ˈ": 181,
      "ˌ": 182,
      "ː": 183,
      "˚": 184,
      "˜": 185,
      "Α": 186,
      "Β": 187,
      "Δ": 188,
      "Ε": 189,
      "Ι": 190,
      "Φ": 191,
      "α": 192,
      "β": 193,
      "γ": 194,
      "δ": 195,
      "ε": 196,
      "η": 197,
      "θ": 198,
      "ι": 199,
      "κ": 200,
      "λ": 201,
      "μ": 202,
      "ν": 203,
      "ο": 204,
      "π": 205,
      "ρ": 206,
      "σ": 207,
      "τ": 208,
      "χ": 209,
      "А": 210,
      "Б": 211,
      "В": 212,
      "Г": 213,
      "Д": 214,
      "Е": 215,
      "З": 216,
      "И": 217,
      "К": 218,
      "Л": 219,
      "М": 220,
      "Н": 221,
      "О": 222,
      "П": 223,
      "Р": 224,
      "С": 225,
      "Т": 226,
      "У": 227,
      "Ф": 228,
      "Х": 229,
      "Ц": 230,
      "Ч": 231,
      "Ю": 232,
      "Я": 233,
      "а": 234,
      "б": 235,
      "в": 236,
      "г": 237,
      "д": 238,
      "е": 239,
      "ж": 240,
      "з": 241,
      "и": 242,
      "к": 243,
      "л": 244,
      "м": 245,
      "н": 246,
      "о": 247,
      "п": 248,
      "р": 249,
      "с": 250,
      "т": 251,
      "у": 252,
      "ф": 253,
      "х": 254,
      "ц": 255,
      "ч": 256,
      "ш": 257,
      "щ": 258,
      "ъ": 259,
      "ы": 260,
      "ь": 261,
      "э": 262,
      "ю": 263,
      "я": 264,
      "ѕ": 265,
      "і": 266,
      "ј": 267,
      "Қ": 268,
      "қ": 269,
      "ҷ": 270,
      "Հ": 271,
      "ա": 272,
      "ե": 273,
      "յ": 274,
      "ն": 275,
      "ր": 276,
      "ב": 277,
      "ד": 278,
      "י": 279,
      "ע": 280,
      "ר": 281,
      "ש": 282,
      "ת": 283,
      "،": 284,
      "ء": 285,
      "ا": 286,
      "ب": 287,
      "ة": 288,
      "ت": 289,
      "ث": 290,
      "ج": 291,
      "ح": 292,
      "خ": 293,
      "د": 294,
      "ذ": 295,
      "ر": 296,
      "ز": 297,
      "س": 298,
      "ش": 299,
      "ص": 300,
      "ض": 301,
      "ط": 302,
      "ظ": 303,
      "ع": 304,
      "غ": 305,
      "ـ": 306,
      "ف": 307,
      "ق": 308,
      "ك": 309,
      "ل": 310,
      "م": 311,
      "ن": 312,
      "ه": 313,
      "و": 314,
      "ى": 315,
      "ي": 316,
      "١": 317,
      "٤": 318,
      "ٱ": 319,
      "پ": 320,
      "چ": 321,
      "ڌ": 322,
      "ښ": 323,
      "ڠ": 324,
      "ڤ": 325,
      "ک": 326,
      "ڽ": 327,
      "ۇ": 328,
      "ی": 329,
      "۞": 330,
      "ۥ": 331,
      "ۦ": 332,
      "۩": 333,
      "ݢ": 334,
      "आ": 335,
      "इ": 336,
      "ए": 337,
      "क": 338,
      "ग": 339,
      "च": 340,
      "ज": 341,
      "ट": 342,
      "ठ": 343,
      "ड": 344,
      "त": 345,
      "द": 346,
      "न": 347,
      "प": 348,
      "ब": 349,
      "म": 350,
      "य": 351,
      "र": 352,
      "ल": 353,
      "व": 354,
      "स": 355,
      "ह": 356,
      "ा": 357,
      "ि": 358,
      "ी": 359,
      "ो": 360,
      "।": 361,
      "ং": 362,
      "ব": 363,
      "ল": 364,
      "া": 365,
      "ਜ": 366,
      "ਪ": 367,
      "ਬ": 368,
      "ਾ": 369,
      "ੀ": 370,
      "ગ": 371,
      "જ": 372,
      "ત": 373,
      "ર": 374,
      "ા": 375,
      "ી": 376,
      "ஜ": 377,
      "த": 378,
      "ம": 379,
      "ழ": 380,
      "ி": 381,
      "గ": 382,
      "త": 383,
      "ల": 384,
      "ు": 385,
      "ಕ": 386,
      "ಡ": 387,
      "ನ": 388,
      "ം": 389,
      "മ": 390,
      "യ": 391,
      "ല": 392,
      "ള": 393,
      "ാ": 394,
      "ං": 395,
      "ල": 396,
      "ස": 397,
      "හ": 398,
      "ท": 399,
      "ภ": 400,
      "ย": 401,
      "ษ": 402,
      "า": 403,
      "฿": 404,
      "ไ": 405,
      "ລ": 406,
      "ວ": 407,
      "າ": 408,
      "စ": 409,
      "ဗ": 410,
      "မ": 411,
      "ာ": 412,
      "ა": 413,
      "თ": 414,
      "ი": 415,
      "ლ": 416,
      "რ": 417,
      "უ": 418,
      "ქ": 419,
      "ღ": 420,
      "ᄀ": 421,
      "ᄂ": 422,
      "ᄃ": 423,
      "ᄅ": 424,
      "ᄆ": 425,
      "ᄋ": 426,
      "ᄑ": 427,
      "ᄒ": 428,
      "ᅡ": 429,
      "ᅥ": 430,
      "ᅦ": 431,
      "ᅩ": 432,
      "ᅮ": 433,
      "ᅳ": 434,
      "ᅵ": 435,
      "ᆨ": 436,
      "ᆫ": 437,
      "ᆬ": 438,
      "ᆯ": 439,
      "ማ": 440,
      "ር": 441,
      "ኛ": 442,
      "አ": 443,
      "‐": 444,
      "‑": 445,
      "–": 446,
      "—": 447,
      "―": 448,
      "‖": 449,
      "‘": 450,
      "’": 451,
      "‚": 452,
      "‛": 453,
      "“": 454,
      "”": 455,
      "„": 456,
      "‟": 457,
      "†": 458,
      "‡": 459,
      "•": 460,
      "…": 461,
      "‰": 462,
      "′": 463,
      "″": 464,
      "‹": 465,
      "›": 466,
      "※": 467,
      "‼": 468,
      "‿": 469,
      "⁉": 470,
      "ⁿ": 471,
      "₁": 472,
      "₂": 473,
      "₡": 474,
      "₨": 475,
      "₪": 476,
      "₫": 477,
      "€": 478,
      "₮": 479,
      "₱": 480,
      "₴": 481,
      "₽": 482,
      "⃣": 483,
      "℃": 484,
      "™": 485,
      "Ⅱ": 486,
      "←": 487,
      "↑": 488,
      "→": 489,
      "↪": 490,
      "↳": 491,
      "⇒": 492,
      "⇢": 493,
      "∀": 494,
      "−": 495,
      "√": 496,
      "∞": 497,
      "∠": 498,
      "∨": 499,
      "∩": 500,
      "≡": 501,
      "≤": 502,
      "≥": 503,
      "≦": 504,
      "≧": 505,
      "⋅": 506,
      "⏩": 507,
      "⏪": 508,
      "⏭": 509,
      "⏺": 510,
      "─": 511,
      "│": 512,
      "┆": 513,
      "┬": 514,
      "╰": 515,
      "█": 516,
      "░": 517,
      "▓": 518,
      "■": 519,
      "□": 520,
      "▢": 521,
      "▪": 522,
      "▫": 523,
      "▲": 524,
      "▶": 525,
      "▸": 526,
      "►": 527,
      "▼": 528,
      "◆": 529,
      "○": 530,
      "●": 531,
      "◕": 532,
      "◙": 533,
      "◠": 534,
      "◦": 535,
      "◼": 536,
      "◾": 537,
      "☀": 538,
      "☁": 539,
      "☂": 540,
      "★": 541,
      "☆": 542,
      "☎": 543,
      "☐": 544,
      "☑": 545,
      "☔": 546,
      "☕": 547,
      "☘": 548,
      "☛": 549,
      "☝": 550,
      "☞": 551,
      "☺": 552,
      "♀": 553,
      "♂": 554,
      "♚": 555,
      "♛": 556,
      "♠": 557,
      "♡": 558,
      "♣": 559,
      "♥": 560,
      "♦": 561,
      "♨": 562,
      "♪": 563,
      "♫": 564,
      "♬": 565,
      "♲": 566,
      "⚀": 567,
      "⚁": 568,
      "⚂": 569,
      "⚃": 570,
      "⚄": 571,
      "⚕": 572,
      "⚘": 573,
      "⚜": 574,
      "⚠": 575,
      "⚡": 576,
      "⚫": 577,
      "⚽": 578,
      "⛔": 579,
      "⛦": 580,
      "✅": 581,
      "✈": 582,
      "✋": 583,
      "✌": 584,
      "✍": 585,
      "✏": 586,
      "✒": 587,
      "✓": 588,
      "✔": 589,
      "✖": 590,
      "✧": 591,
      "✨": 592,
      "✩": 593,
      "✳": 594,
      "✴": 595,
      "✿": 596,
      "❀": 597,
      "❇": 598,
      "❋": 599,
      "❌": 600,
      "❎": 601,
      "❓": 602,
      "❗": 603,
      "❝": 604,
      "❞": 605,
      "❢": 606,
      "❣": 607,
      "❤": 608,
      "➕": 609,
      "➖": 610,
      "➛": 611,
      "➟": 612,
      "➠": 613,
      "➡": 614,
      "➢": 615,
      "➤": 616,
      "➧": 617,
      "➨": 618,
      "➫": 619,
      "➳": 620,
      "⟵": 621,
      "⟶": 622,
      "⟿": 623,
      "⠀": 624,
      "⤵": 625,
      "⥁": 626,
      "⬇": 627,
      "⬛": 628,
      "⭐": 629,
      "⭕": 630,
      "、": 631,
      "。": 632,
      "《": 633,
      "》": 634,
      "「": 635,
      "」": 636,
      "『": 637,
      "』": 638,
      "【": 639,
      "】": 640,
      "か": 641,
      "て": 642,
      "に": 643,
      "の": 644,
      "を": 645,
      "ア": 646,
      "イ": 647,
      "コ": 648,
      "ツ": 649,
      "ト": 650,
      "ノ": 651,
      "フ": 652,
      "ン": 653,
      "・": 654,
      "ー": 655,
      "㋡": 656,
      "㎡": 657,
      "世": 658,
      "中": 659,
      "二": 660,
      "井": 661,
      "人": 662,
      "会": 663,
      "体": 664,
      "冬": 665,
      "分": 666,
      "划": 667,
      "匚": 668,
      "发": 669,
      "取": 670,
      "口": 671,
      "同": 672,
      "图": 673,
      "处": 674,
      "夏": 675,
      "大": 676,
      "寒": 677,
      "小": 678,
      "巴": 679,
      "年": 680,
      "库": 681,
      "度": 682,
      "戸": 683,
      "提": 684,
      "政": 685,
      "文": 686,
      "日": 687,
      "明": 688,
      "春": 689,
      "暑": 690,
      "本": 691,
      "港": 692,
      "牋": 693,
      "用": 694,
      "疋": 695,
      "白": 696,
      "百": 697,
      "秋": 698,
      "立": 699,
      "端": 700,
      "简": 701,
      "線": 702,
      "繁": 703,
      "网": 704,
      "胸": 705,
      "自": 706,
      "至": 707,
      "語": 708,
      "语": 709,
      "货": 710,
      "车": 711,
      "雨": 712,
      "雪": 713,
      "面": 714,
      "页": 715,
      "马": 716,
      "體": 717,
      "鹿": 718,
      "ﬁ": 719,
      "ﬂ": 720,
      "ﬆ": 721,
      "﷯": 722,
      "ﷲ": 723,
      "ﷺ": 724,
      "ﷻ": 725,
      "﷼": 726,
      "ﺍ": 727,
      "ﺎ": 728,
      "ﺟ": 729,
      "ﺪ": 730,
      "ﺮ": 731,
      "ﺴ": 732,
      "ﻘ": 733,
      "ﻟ": 734,
      "ﻠ": 735,
      "ﻢ": 736,
      "ﻣ": 737,
      "ﻮ": 738,
      "ﻴ": 739,
      "！": 740,
      "＂": 741,
      "（": 742,
      "）": 743,
      "，": 744,
      "－": 745,
      "：": 746,
      "；": 747,
      "？": 748,
      "～": 749,
      "￼": 750,
      "𝔸": 751,
      "🆙": 752,
      "🇦": 753,
      "🇲": 754,
      "🇺": 755,
      "🇾": 756,
      "🌍": 757,
      "🌒": 758,
      "🌞": 759,
      "🌟": 760,
      "🌱": 761,
      "🌶": 762,
      "🌷": 763,
      "🌸": 764,
      "🌹": 765,
      "🌺": 766,
      "🌻": 767,
      "🌼": 768,
      "🌿": 769,
      "🍀": 770,
      "🍁": 771,
      "🍃": 772,
      "🍄": 773,
      "🍅": 774,
      "🍇": 775,
      "🍉": 776,
      "🍊": 777,
      "🍋": 778,
      "🍎": 779,
      "🍑": 780,
      "🍓": 781,
      "🍤": 782,
      "🍫": 783,
      "🍬": 784,
      "🍭": 785,
      "🍯": 786,
      "🍰": 787,
      "🍳": 788,
      "🍶": 789,
      "🍷": 790,
      "🍹": 791,
      "🍼": 792,
      "🎀": 793,
      "🎁": 794,
      "🎈": 795,
      "🎉": 796,
      "🎊": 797,
      "🎖": 798,
      "🎬": 799,
      "🎮": 800,
      "🎶": 801,
      "🏃": 802,
      "🏄": 803,
      "🏅": 804,
      "🏖": 805,
      "🏘": 806,
      "🏭": 807,
      "🏵": 808,
      "🏷": 809,
      "🏻": 810,
      "🏼": 811,
      "🏽": 812,
      "🏿": 813,
      "🐐": 814,
      "🐝": 815,
      "🐠": 816,
      "🐣": 817,
      "🐼": 818,
      "👆": 819,
      "👇": 820,
      "👈": 821,
      "👉": 822,
      "👋": 823,
      "👌": 824,
      "👍": 825,
      "👏": 826,
      "👒": 827,
      "👕": 828,
      "👗": 829,
      "👙": 830,
      "👥": 831,
      "👨": 832,
      "👩": 833,
      "👫": 834,
      "👳": 835,
      "👶": 836,
      "💃": 837,
      "💄": 838,
      "💅": 839,
      "💆": 840,
      "💉": 841,
      "💊": 842,
      "💋": 843,
      "💌": 844,
      "💍": 845,
      "💎": 846,
      "💐": 847,
      "💓": 848,
      "💔": 849,
      "💕": 850,
      "💖": 851,
      "💗": 852,
      "💘": 853,
      "💙": 854,
      "💚": 855,
      "💛": 856,
      "💜": 857,
      "💝": 858,
      "💞": 859,
      "💟": 860,
      "💠": 861,
      "💡": 862,
      "💢": 863,
      "💣": 864,
      "💥": 865,
      "💦": 866,
      "💧": 867,
      "💨": 868,
      "💪": 869,
      "💫": 870,
      "💬": 871,
      "💮": 872,
      "💯": 873,
      "💰": 874,
      "💲": 875,
      "💳": 876,
      "💵": 877,
      "💸": 878,
      "📇": 879,
      "📊": 880,
      "📌": 881,
      "📍": 882,
      "📎": 883,
      "📔": 884,
      "📖": 885,
      "📚": 886,
      "📜": 887,
      "📝": 888,
      "📞": 889,
      "📠": 890,
      "📢": 891,
      "📣": 892,
      "📤": 893,
      "📦": 894,
      "📩": 895,
      "📬": 896,
      "📮": 897,
      "📱": 898,
      "📲": 899,
      "📸": 900,
      "🔅": 901,
      "🔆": 902,
      "🔊": 903,
      "🔖": 904,
      "🔗": 905,
      "🔥": 906,
      "🔪": 907,
      "🔬": 908,
      "🔮": 909,
      "🔰": 910,
      "🔴": 911,
      "🔵": 912,
      "🔶": 913,
      "🔷": 914,
      "🔸": 915,
      "🔹": 916,
      "🔺": 917,
      "🕌": 918,
      "😀": 919,
      "😁": 920,
      "😂": 921,
      "😃": 922,
      "😄": 923,
      "😅": 924,
      "😆": 925,
      "😇": 926,
      "😈": 927,
      "😉": 928,
      "😊": 929,
      "😋": 930,
      "😌": 931,
      "😍": 932,
      "😎": 933,
      "😏": 934,
      "😑": 935,
      "😒": 936,
      "😓": 937,
      "😔": 938,
      "😖": 939,
      "😗": 940,
      "😘": 941,
      "😙": 942,
      "😚": 943,
      "😛": 944,
      "😜": 945,
      "😝": 946,
      "😡": 947,
      "😢": 948,
      "😣": 949,
      "😥": 950,
      "😨": 951,
      "😩": 952,
      "😫": 953,
      "😬": 954,
      "😭": 955,
      "😯": 956,
      "😰": 957,
      "😱": 958,
      "😲": 959,
      "😳": 960,
      "😴": 961,
      "😵": 962,
      "😷": 963,
      "😸": 964,
      "😼": 965,
      "😿": 966,
      "🙂": 967,
      "🙃": 968,
      "🙄": 969,
      "🙅": 970,
      "🙆": 971,
      "🙈": 972,
      "🙋": 973,
      "🙌": 974,
      "🙏": 975,
      "🚐": 976,
      "🚕": 977,
      "🚗": 978,
      "🚘": 979,
      "🚚": 980,
      "🚩": 981,
      "🚫": 982,
      "🚿": 983,
      "🛍": 984,
      "🛑": 985,
      "🤔": 986,
      "🤗": 987,
      "🤙": 988,
      "🤣": 989,
      "🤤": 990,
      "🤦": 991,
      "🤩": 992,
      "🤪": 993,
      "🤭": 994,
      "🤰": 995,
      "🤳": 996,
      "🤸": 997,
      "🥀": 998,
      "🥣": 999,
      "🥰": 1000,
      "🧀": 1001,
      "🧐": 1002,
      "🧚": 1003,
      "🧬": 1004,
      "##E": 1005,
      "##N": 1006,
      "##J": 1007,
      "##A": 1008,
      "##M": 1009,
      "##U": 1010,
      "##a": 1011,
      "##s": 1012,
      "##m": 1013,
      "##r": 1014,
      "##n": 1015,
      "##B": 1016,
      "##i": 1017,
      "##S": 1018,
      "##y": 1019,
      "##H": 1020,
      "##b": 1021,
      "##e": 1022,
      "##p": 1023,
      "##0": 1024,
      "##9": 1025,
      "##d": 1026,
      "##w": 1027,
      "##k": 1028,
      "##t": 1029,
      "##u": 1030,
      "##o": 1031,
      "##l": 1032,
      "##g": 1033,
      "##f": 1034,
      "##v": 1035,
      "##j": 1036,
      "##h": 1037,
      "##5": 1038,
      "##3": 1039,
      "##7": 1040,
      "##4": 1041,
      "##c": 1042,
      "##D": 1043,
      "##R": 1044,
      "##K": 1045,
      "##G": 1046,
      "##P": 1047,
      "##И": 1048,
      "##2": 1049,
      "##✔": 1050,
      "##1": 1051,
      "##L": 1052,
      "##I": 1053,
      "##q": 1054,
      "##T": 1055,
      "##x": 1056,
      "##z": 1057,
      "##6": 1058,
      "##8": 1059,
      "##C": 1060,
      "##O": 1061,
      "##V": 1062,
      "##F": 1063,
      "##Q": 1064,
      "##Z": 1065,
      "##®": 1066,
      "##W": 1067,
      "##Y": 1068,
      "##α": 1069,
      "##²": 1070,
      "##X": 1071,
      "##™": 1072,
      "##ı": 1073,
      "##ا": 1074,
      "##ذ": 1075,
      "##ə": 1076,
      "##œ": 1077,
      "##⚂": 1078,
      "##⚃": 1079,
      "##☺": 1080,
      "##а": 1081,
      "##👇": 1082,
      "##ж": 1083,
      "##о": 1084,
      "##б": 1085,
      "##с": 1086,
      "##м": 1087,
      "##ب": 1088,
      "##ل": 1089,
      "##غ": 1090,
      "##ن": 1091,
      "##€": 1092,
      "##ي": 1093,
      "##⚕": 1094,
      "##💉": 1095,
      "##👨": 1096,
      "##я": 1097,
      "##в": 1098,
      "##и": 1099,
      "##т": 1100,
      "##¹": 1101,
      "##¬": 1102,
      "##÷": 1103,
      "##❗": 1104,
      "##º": 1105,
      "##ش": 1106,
      "##ء": 1107,
      "##│": 1108,
      "##æ": 1109,
      "##♥": 1110,
      "##ˈ": 1111,
      "##ɾ": 1112,
      "##😱": 1113,
      "##ø": 1114,
      "##і": 1115,
      "##р": 1116,
      "##е": 1117,
      "##ر": 1118,
      "##ع": 1119,
      "##♦": 1120,
      "##💃": 1121,
      "##🏻": 1122,
      "##द": 1123,
      "##र": 1124,
      "##©": 1125,
      "##⃣": 1126,
      "##🍃": 1127,
      "##🌼": 1128,
      "##👩": 1129,
      "##Ф": 1130,
      "##😍": 1131,
      "##🐣": 1132,
      "##🏼": 1133,
      "##س": 1134,
      "##ـ": 1135,
      "##ت": 1136,
      "##ه": 1137,
      "##ۦ": 1138,
      "##ð": 1139,
      "##❤": 1140,
      "##🌹": 1141,
      "##л": 1142,
      "##н": 1143,
      "##❌": 1144,
      "##⟶": 1145,
      "##■": 1146,
      "##🌷": 1147,
      "##🚫": 1148,
      "##ʼ": 1149,
      "##Р": 1150,
      "##у": 1151,
      "##к": 1152,
      "##¢": 1153,
      "##📢": 1154,
      "##ᅡ": 1155,
      "##ᆫ": 1156,
      "##ᄀ": 1157,
      "##ᅮ": 1158,
      "##ᆨ": 1159,
      "##ᄋ": 1160,
      "##ᅥ": 1161,
      "##ไ": 1162,
      "##ท": 1163,
      "##ย": 1164,
      "##🤣": 1165,
      "##ح": 1166,
      "##ة": 1167,
      "##ь": 1168,
      "##ш": 1169,
      "##😉": 1170,
      "##½": 1171,
      "##ю": 1172,
      "##ƿ": 1173,
      "##●": 1174,
      "##📦": 1175,
      "##д": 1176,
      "##₂": 1177,
      "##ы": 1178,
      "##х": 1179,
      "##م": 1180,
      "##✅": 1181,
      "##δ": 1182,
      "##≤": 1183,
      "##😎": 1184,
      "##▪": 1185,
      "##و": 1186,
      "##ى": 1187,
      "##ق": 1188,
      "##ف": 1189,
      "##ღ": 1190,
      "##˜": 1191,
      "##¦": 1192,
      "##³": 1193,
      "##ß": 1194,
      "##×": 1195,
      "##⚡": 1196,
      "##ڠ": 1197,
      "##đ": 1198,
      "##🔥": 1199,
      "##ƒ": 1200,
      "##ث": 1201,
      "##ा": 1202,
      "##ʻ": 1203,
      "##ك": 1204,
      "##ʔ": 1205,
      "##г": 1206,
      "##മ": 1207,
      "##ല": 1208,
      "##യ": 1209,
      "##ാ": 1210,
      "##ള": 1211,
      "##ം": 1212,
      "##خ": 1213,
      "##ٱ": 1214,
      "##≥": 1215,
      "##🤪": 1216,
      "##ز": 1217,
      "##ɑ": 1218,
      "##ص": 1219,
      "##😆": 1220,
      "##´": 1221,
      "##😘": 1222,
      "##ी": 1223,
      "##🍀": 1224,
      "##😇": 1225,
      "##→": 1226,
      "##ⁿ": 1227,
      "##ɛ": 1228,
      "##М": 1229,
      "##ʒ": 1230,
      "##ː": 1231,
      "##щ": 1232,
      "##🏖": 1233,
      "##🤗": 1234,
      "##د": 1235,
      "##ک": 1236,
      "##😁": 1237,
      "##з": 1238,
      "##💚": 1239,
      "##😔": 1240,
      "##ч": 1241,
      "##👍": 1242,
      "##ʊ": 1243,
      "##ц": 1244,
      "##📲": 1245,
      "##💝": 1246,
      "##❓": 1247,
      "##п": 1248,
      "##🔬": 1249,
      "##😜": 1250,
      "##😄": 1251,
      "##😊": 1252,
      "##★": 1253,
      "##🌸": 1254,
      "##💎": 1255,
      "##😂": 1256,
      "##⚘": 1257,
      "##✿": 1258,
      "##😅": 1259,
      "##📞": 1260,
      "##✈": 1261,
      "##ض": 1262,
      "##£": 1263,
      "##ʁ": 1264,
      "##🇲": 1265,
      "##🇾": 1266,
      "##🍑": 1267,
      "##ج": 1268,
      "##📣": 1269,
      "##✌": 1270,
      "##ط": 1271,
      "##⬇": 1272,
      "##Д": 1273,
      "##О": 1274,
      "##न": 1275,
      "##व": 1276,
      "##þ": 1277,
      "##ব": 1278,
      "##া": 1279,
      "##ং": 1280,
      "##ল": 1281,
      "##Б": 1282,
      "##ъ": 1283,
      "##°": 1284,
      "##🏿": 1285,
      "##ɪ": 1286,
      "##ɐ": 1287,
      "##👈": 1288,
      "##😢": 1289,
      "##👥": 1290,
      "##🤔": 1291,
      "##ン": 1292,
      "##ツ": 1293,
      "##▼": 1294,
      "##ѕ": 1295,
      "##ᆬ": 1296,
      "##💘": 1297,
      "##💯": 1298,
      "##າ": 1299,
      "##ວ": 1300,
      "##ﬁ": 1301,
      "##💜": 1302,
      "##ि": 1303,
      "##ڤ": 1304,
      "##🏽": 1305,
      "##♂": 1306,
      "##📱": 1307,
      "##ल": 1308,
      "##त": 1309,
      "##🐐": 1310,
      "##🍁": 1311,
      "##🎀": 1312,
      "##¨": 1313,
      "##प": 1314,
      "##क": 1315,
      "##🤦": 1316,
      "##♀": 1317,
      "##ʿ": 1318,
      "##ی": 1319,
      "##👆": 1320,
      "##💪": 1321,
      "##ظ": 1322,
      "##❣": 1323,
      "##−": 1324,
      "##👗": 1325,
      "##ł": 1326,
      "##⚽": 1327,
      "##⇒": 1328,
      "##Ð": 1329,
      "##🥰": 1330,
      "##✏": 1331,
      "##Æ": 1332,
      "##🙆": 1333,
      "##💕": 1334,
      "##😑": 1335,
      "##э": 1336,
      "##ʹ": 1337,
      "##ो": 1338,
      "##म": 1339,
      "##Т": 1340,
      "##ҷ": 1341,
      "##த": 1342,
      "##ம": 1343,
      "##ி": 1344,
      "##ழ": 1345,
      "##త": 1346,
      "##ల": 1347,
      "##ు": 1348,
      "##గ": 1349,
      "##У": 1350,
      "##ݢ": 1351,
      "##😚": 1352,
      "##❋": 1353,
      "##٤": 1354,
      "##±": 1355,
      "##👉": 1356,
      "##❇": 1357,
      "##🍳": 1358,
      "##√": 1359,
      "##👫": 1360,
      "##ﷻ": 1361,
      "##Þ": 1362,
      "##ʃ": 1363,
      "##θ": 1364,
      "##🤭": 1365,
      "##﷯": 1366,
      "##स": 1367,
      "##💋": 1368,
      "##₮": 1369,
      "##💦": 1370,
      "##😓": 1371,
      "##📍": 1372,
      "##¼": 1373,
      "##👏": 1374,
      "##π": 1375,
      "##🤩": 1376,
      "##ﬂ": 1377,
      "##🍫": 1378,
      "##ħ": 1379,
      "##ʷ": 1380,
      "##ᅵ": 1381,
      "##ᄒ": 1382,
      "##ɔ": 1383,
      "##ʲ": 1384,
      "##⤵": 1385,
      "##😭": 1386,
      "##ह": 1387,
      "##💰": 1388,
      "##ʾ": 1389,
      "##💣": 1390,
      "##ﬆ": 1391,
      "##😙": 1392,
      "##▲": 1393,
      "##🕌": 1394,
      "##🌱": 1395,
      "##🥀": 1396,
      "##の": 1397,
      "##🌻": 1398,
      "##✨": 1399,
      "##ट": 1400,
      "##σ": 1401,
      "##τ": 1402,
      "##ρ": 1403,
      "##ο": 1404,
      "##ν": 1405,
      "##💗": 1406,
      "##🙌": 1407,
      "##ʈ": 1408,
      "##🚕": 1409,
      "##✋": 1410,
      "##י": 1411,
      "##ד": 1412,
      "##ש": 1413,
      "##─": 1414,
      "##ŋ": 1415,
      "##♡": 1416,
      "##👋": 1417,
      "##💬": 1418,
      "##♬": 1419,
      "##♪": 1420,
      "##►": 1421,
      "##ڌ": 1422,
      "##ස": 1423,
      "##ං": 1424,
      "##හ": 1425,
      "##ල": 1426,
      "##😏": 1427,
      "##😬": 1428,
      "##ڽ": 1429,
      "##🙈": 1430,
      "##🙃": 1431,
      "##ﷺ": 1432,
      "##☆": 1433,
      "##🏘": 1434,
      "##⠀": 1435,
      "##¤": 1436,
      "##❢": 1437,
      "##😯": 1438,
      "##㎡": 1439,
      "##С": 1440,
      "##🎉": 1441,
      "##🧀": 1442,
      "##¸": 1443,
      "##💖": 1444,
      "##ע": 1445,
      "##ב": 1446,
      "##ר": 1447,
      "##ת": 1448,
      "##ア": 1449,
      "##←": 1450,
      "##😡": 1451,
      "##❀": 1452,
      "##💞": 1453,
      "##ﻟ": 1454,
      "##ﺴ": 1455,
      "##ﻠ": 1456,
      "##ﻴ": 1457,
      "##ﻢ": 1458,
      "##Հ": 1459,
      "##ա": 1460,
      "##յ": 1461,
      "##ե": 1462,
      "##ր": 1463,
      "##ն": 1464,
      "##😃": 1465,
      "##⚀": 1466,
      "##⏭": 1467,
      "##Ε": 1468,
      "##λ": 1469,
      "##η": 1470,
      "##ι": 1471,
      "##κ": 1472,
      "##Қ": 1473,
      "##қ": 1474,
      "##ગ": 1475,
      "##જ": 1476,
      "##ર": 1477,
      "##ા": 1478,
      "##ત": 1479,
      "##ી": 1480,
      "##ಕ": 1481,
      "##ನ": 1482,
      "##ಡ": 1483,
      "##ठ": 1484,
      "##ภ": 1485,
      "##า": 1486,
      "##ษ": 1487,
      "##🤤": 1488,
      "##ј": 1489,
      "##😛": 1490,
      "##ʎ": 1491,
      "##💅": 1492,
      "##┬": 1493,
      "##∀": 1494,
      "##✧": 1495,
      "##💵": 1496,
      "##ۥ": 1497,
      "##⛦": 1498,
      "##🍭": 1499,
      "##🍬": 1500,
      "##◆": 1501,
      "##य": 1502,
      "##ɡ": 1503,
      "##🌿": 1504,
      "##☕": 1505,
      "##～": 1506,
      "##🙏": 1507,
      "##ब": 1508,
      "##⚠": 1509,
      "##ф": 1510,
      "##Е": 1511,
      "##ज": 1512,
      "##➖": 1513,
      "##🧐": 1514,
      "##आ": 1515,
      "##😲": 1516,
      "##ʰ": 1517,
      "##🎈": 1518,
      "##💸": 1519,
      "##☁": 1520,
      "##ᆯ": 1521,
      "##ᄅ": 1522,
      "##ᅦ": 1523,
      "##😒": 1524,
      "##◼": 1525,
      "##ᅳ": 1526,
      "##ᄆ": 1527,
      "##ᄃ": 1528,
      "##💐": 1529,
      "##🙂": 1530,
      "##β": 1531,
      "##♛": 1532,
      "##🎊": 1533,
      "##🙄": 1534,
      "##📝": 1535,
      "##📚": 1536,
      "##😌": 1537,
      "##☞": 1538,
      "##😣": 1539,
      "##☀": 1540,
      "##🏃": 1541,
      "##⭐": 1542,
      "##μ": 1543,
      "##😩": 1544,
      "##👌": 1545,
      "##💙": 1546,
      "##ग": 1547,
      "##🇺": 1548,
      "##💌": 1549,
      "##አ": 1550,
      "##ማ": 1551,
      "##ር": 1552,
      "##ኛ": 1553,
      "##コ": 1554,
      "##µ": 1555,
      "##⛔": 1556,
      "##▸": 1557,
      "##🌟": 1558,
      "##🍋": 1559,
      "##😋": 1560,
      "##🤳": 1561,
      "##😳": 1562,
      "##😿": 1563,
      "##К": 1564,
      "##฿": 1565,
      "##⚫": 1566,
      "##℃": 1567,
      "##ɣ": 1568,
      "##🌒": 1569,
      "##🍼": 1570,
      "##ɕ": 1571,
      "##😷": 1572,
      "##ड": 1573,
      "##😝": 1574,
      "##မ": 1575,
      "##ာ": 1576,
      "##စ": 1577,
      "##💊": 1578,
      "##🎮": 1579,
      "##ー": 1580,
      "##😗": 1581,
      "##ᅩ": 1582,
      "##に": 1583,
      "##🌺": 1584,
      "##💛": 1585,
      "##🙋": 1586,
      "##😫": 1587,
      "##💍": 1588,
      "##🍓": 1589,
      "##ᄑ": 1590,
      "##ᄂ": 1591,
      "##ﺟ": 1592,
      "##😴": 1593,
      "##ª": 1594,
      "##¯": 1595,
      "##💥": 1596,
      "##👶": 1597,
      "##ﺪ": 1598,
      "##ﺍ": 1599,
      "##ﻮ": 1600,
      "##ﻘ": 1601,
      "##ﺮ": 1602,
      "##ۇ": 1603,
      "##چ": 1604,
      "##ʕ": 1605,
      "##🍹": 1606,
      "##☝": 1607,
      "##🔹": 1608,
      "##📸": 1609,
      "##Φ": 1610,
      "##フ": 1611,
      "##イ": 1612,
      "##🍤": 1613,
      "##پ": 1614,
      "##ښ": 1615,
      "##ਪ": 1616,
      "##ਜ": 1617,
      "##ਾ": 1618,
      "##ਬ": 1619,
      "##ੀ": 1620,
      "##ʌ": 1621,
      "##ɯ": 1622,
      "##ﺎ": 1623,
      "##♠": 1624,
      "##⋅": 1625,
      "##ˌ": 1626,
      "##🤙": 1627,
      "##¾": 1628,
      "##░": 1629,
      "##▓": 1630,
      "##█": 1631,
      "##🚗": 1632,
      "##🍰": 1633,
      "##Н": 1634,
      "##Я": 1635,
      "##🤰": 1636,
      "##Ø": 1637,
      "##😰": 1638,
      "##ဗ": 1639,
      "##💆": 1640,
      "##😼": 1641,
      "##П": 1642,
      "##☘": 1643,
      "##て": 1644,
      "##ქ": 1645,
      "##ა": 1646,
      "##რ": 1647,
      "##თ": 1648,
      "##უ": 1649,
      "##ლ": 1650,
      "##ი": 1651,
      "##￼": 1652,
      "##😀": 1653,
      "##ﻣ": 1654,
      "##🇦": 1655,
      "##А": 1656,
      "##💨": 1657,
      "##В": 1658,
      "##➡": 1659,
      "##˚": 1660,
      "##ト": 1661,
      "##١": 1662,
      "##ए": 1663,
      "##😸": 1664,
      "##ε": 1665,
      "##💓": 1666,
      "##📤": 1667,
      "##इ": 1668,
      "##Ι": 1669,
      "##♫": 1670,
      "##⏪": 1671,
      "##🚩": 1672,
      "##📖": 1673,
      "##🏷": 1674,
      "##♲": 1675,
      "##□": 1676,
      "##¥": 1677,
      "##🔊": 1678,
      "##🍷": 1679,
      "##💢": 1680,
      "##❞": 1681,
      "##◠": 1682,
      "##च": 1683,
      "##✴": 1684,
      "##Δ": 1685,
      "##۩": 1686,
      "##۞": 1687,
      "##🍄": 1688,
      "##😥": 1689,
      "##♣": 1690,
      "##≡": 1691,
      "##🏵": 1692,
      "##💮": 1693,
      "##╰": 1694,
      "##▶": 1695,
      "##∨": 1696,
      "##🍉": 1697,
      "##💫": 1698,
      "##🐼": 1699,
      "##🔪": 1700,
      "##📮": 1701,
      "##📠": 1702,
      "##χ": 1703,
      "##🙅": 1704,
      "##Ц": 1705,
      "##ஜ": 1706,
      "##😖": 1707,
      "##∞": 1708,
      "##₁": 1709,
      "##🎁": 1710,
      "##💄": 1711,
      "##💠": 1712,
      "##😈": 1713,
      "##∩": 1714,
      "##🔰": 1715,
      "##Ⅱ": 1716,
      "##🚿": 1717,
      "##Х": 1718,
      "##🌞": 1719,
      "##📜": 1720,
      "##🎶": 1721,
      "##✖": 1722,
      "##💡": 1723,
      "##👙": 1724,
      "##😵": 1725,
      "##😨": 1726,
      "##🍎": 1727,
      "##ລ": 1728,
      "##≧": 1729,
      "##≦": 1730,
      "##🍇": 1731,
      "##Ł": 1732,
      "##📌": 1733,
      "##❎": 1734,
      "##♨": 1735,
      "##💲": 1736,
      "##an": 1737,
      "##er": 1738,
      "##en": 1739,
      "##ar": 1740,
      "##la": 1741,
      "##at": 1742,
      "##ang": 1743,
      "##ak": 1744,
      "##ah": 1745,
      "##in": 1746,
      "##em": 1747,
      "##as": 1748,
      "##am": 1749,
      "##un": 1750,
      "di": 1751,
      "##kan": 1752,
      "##al": 1753,
      "##da": 1754,
      "##eng": 1755,
      "##tu": 1756,
      "se": 1757,
      "##ya": 1758,
      "##ti": 1759,
      "##ala": 1760,
      "ke": 1761,
      "yang": 1762,
      "##el": 1763,
      "##on": 1764,
      "##ai": 1765,
      "dan": 1766,
      "##si": 1767,
      "##ta": 1768,
      "ber": 1769,
      "##ur": 1770,
      "##di": 1771,
      "##or": 1772,
      "##ag": 1773,
      "##ing": 1774,
      "##es": 1775,
      "men": 1776,
      "##ik": 1777,
      "##ap": 1778,
      "##ela": 1779,
      "##um": 1780,
      "##ada": 1781,
      "##is": 1782,
      "##us": 1783,
      "##ek": 1784,
      "per": 1785,
      "##id": 1786,
      "##uk": 1787,
      "##ul": 1788,
      "##il": 1789,
      "##emb": 1790,
      "##AN": 1791,
      "in": 1792,
      "##ari": 1793,
      "##le": 1794,
      "##ut": 1795,
      "##it": 1796,
      "ter": 1797,
      "##tuk": 1798,
      "##ara": 1799,
      "##ir": 1800,
      "##ung": 1801,
      "un": 1802,
      "##alam": 1803,
      "##ja": 1804,
      "##eb": 1805,
      "##ih": 1806,
      "##akan": 1807,
      "##lah": 1808,
      "meng": 1809,
      "##ab": 1810,
      "untuk": 1811,
      "##im": 1812,
      "##ad": 1813,
      "an": 1814,
      "##aw": 1815,
      "##atan": 1816,
      "##engan": 1817,
      "##ro": 1818,
      "##ga": 1819,
      "20": 1820,
      "##nya": 1821,
      "dengan": 1822,
      "##eri": 1823,
      "##om": 1824,
      "##eg": 1825,
      "##ama": 1826,
      "##et": 1827,
      "ini": 1828,
      "##ku": 1829,
      "Per": 1830,
      "dalam": 1831,
      "##aya": 1832,
      "##ol": 1833,
      "##angan": 1834,
      "##uh": 1835,
      "seb": 1836,
      "##leh": 1837,
      "pen": 1838,
      "##asa": 1839,
      "##ri": 1840,
      "mem": 1841,
      "##ed": 1842,
      "##up": 1843,
      "##ent": 1844,
      "##aj": 1845,
      "##pada": 1846,
      "201": 1847,
      "##agi": 1848,
      "##aan": 1849,
      "##ud": 1850,
      "ada": 1851,
      "##and": 1852,
      "mer": 1853,
      "dari": 1854,
      "##ep": 1855,
      "##ub": 1856,
      "##ana": 1857,
      "##ER": 1858,
      "##aran": 1859,
      "memb": 1860,
      "##asi": 1861,
      "ker": 1862,
      "##sia": 1863,
      "##idak": 1864,
      "##ok": 1865,
      "##lu": 1866,
      "##ati": 1867,
      "##ali": 1868,
      "##ot": 1869,
      "itu": 1870,
      "##per": 1871,
      "In": 1872,
      "##uan": 1873,
      "tidak": 1874,
      "##AH": 1875,
      "##he": 1876,
      "##ain": 1877,
      "peng": 1878,
      "##ac": 1879,
      "##ong": 1880,
      "##oh": 1881,
      "##ia": 1882,
      "##AR": 1883,
      "##alan": 1884,
      "##ita": 1885,
      "##lam": 1886,
      "pada": 1887,
      "##ahan": 1888,
      "##ay": 1889,
      "##ula": 1890,
      "##os": 1891,
      "sem": 1892,
      "##amp": 1893,
      "##ata": 1894,
      "##ua": 1895,
      "##agai": 1896,
      "##amb": 1897,
      "##adi": 1898,
      "Pen": 1899,
      "##tik": 1900,
      "##uat": 1901,
      "##AT": 1902,
      "##anya": 1903,
      "##gi": 1904,
      "##ter": 1905,
      "kepada": 1906,
      "##EN": 1907,
      "##alah": 1908,
      "ju": 1909,
      "##eka": 1910,
      "##pat": 1911,
      "Ke": 1912,
      "##oleh": 1913,
      "##ila": 1914,
      "akan": 1915,
      "##aja": 1916,
      "##ib": 1917,
      "##elah": 1918,
      "##IN": 1919,
      "mas": 1920,
      "##tau": 1921,
      "##ian": 1922,
      "Al": 1923,
      "tah": 1924,
      "aku": 1925,
      "or": 1926,
      "##eta": 1927,
      "##tan": 1928,
      "adalah": 1929,
      "An": 1930,
      "Ber": 1931,
      "##ukan": 1932,
      "##alay": 1933,
      "meny": 1934,
      "##pa": 1935,
      "Peng": 1936,
      "atau": 1937,
      "sek": 1938,
      "berk": 1939,
      "Is": 1940,
      "##ic": 1941,
      "Ter": 1942,
      "##00": 1943,
      "##alaysia": 1944,
      "##re": 1945,
      "oleh": 1946,
      "pro": 1947,
      "##ami": 1948,
      "##yak": 1949,
      "##og": 1950,
      "the": 1951,
      "##gun": 1952,
      "##AS": 1953,
      "##angk": 1954,
      "##ip": 1955,
      "mereka": 1956,
      "Malaysia": 1957,
      "anda": 1958,
      "saya": 1959,
      "juga": 1960,
      "##od": 1961,
      "##end": 1962,
      "##aman": 1963,
      "##af": 1964,
      "##ant": 1965,
      "bah": 1966,
      "##ec": 1967,
      "boleh": 1968,
      "Un": 1969,
      "##ini": 1970,
      "orang": 1971,
      "##atu": 1972,
      "##ebih": 1973,
      "telah": 1974,
      "##AM": 1975,
      "##ew": 1976,
      "##san": 1977,
      "##angg": 1978,
      "##AL": 1979,
      "pem": 1980,
      "##tr": 1981,
      "##aik": 1982,
      "tahun": 1983,
      "##jadi": 1984,
      "##aru": 1985,
      "of": 1986,
      "##emp": 1987,
      "pemb": 1988,
      "##elak": 1989,
      "##yar": 1990,
      "tak": 1991,
      "kita": 1992,
      "##apa": 1993,
      "ak": 1994,
      "dib": 1995,
      "is": 1996,
      "##edi": 1997,
      "sebagai": 1998,
      "Ker": 1999,
      "neg": 2000,
      "##op": 2001,
      "##asan": 2002,
      "##arkan": 2003,
      "al": 2004,
      "bagi": 2005,
      "##AK": 2006,
      "Di": 2007,
      "mel": 2008,
      "lebih": 2009,
      "Pro": 2010,
      "and": 2011,
      "##elaj": 2012,
      "##ind": 2013,
      "##arga": 2014,
      "##EL": 2015,
      "ser": 2016,
      "bers": 2017,
      "##orang": 2018,
      "##anc": 2019,
      "daripada": 2020,
      "2019": 2021,
      "##uj": 2022,
      "sen": 2023,
      "kem": 2024,
      "as": 2025,
      "##yat": 2026,
      "##ump": 2027,
      "##tas": 2028,
      "##EM": 2029,
      "##anj": 2030,
      "Islam": 2031,
      "##pi": 2032,
      "##awa": 2033,
      "##angs": 2034,
      "mak": 2035,
      "##udah": 2036,
      "dis": 2037,
      "##ulan": 2038,
      "##uah": 2039,
      "19": 2040,
      "lain": 2041,
      "##li": 2042,
      "to": 2043,
      "Men": 2044,
      "kes": 2045,
      "dik": 2046,
      "##apat": 2047,
      "##ingk": 2048,
      "mela": 2049,
      "satu": 2050,
      "##uc": 2051,
      "##if": 2052,
      "##ihat": 2053,
      "##ANG": 2054,
      "##tara": 2055,
      "##ina": 2056,
      "##ika": 2057,
      "pel": 2058,
      "hari": 2059,
      "##gunakan": 2060,
      "##ej": 2061,
      "##uran": 2062,
      "##uka": 2063,
      "##tor": 2064,
      "bel": 2065,
      "##ebut": 2066,
      "##anyak": 2067,
      "menjadi": 2068,
      "##perti": 2069,
      "##iti": 2070,
      "##arang": 2071,
      "ters": 2072,
      "##tem": 2073,
      "Sh": 2074,
      "th": 2075,
      "##ver": 2076,
      "##UN": 2077,
      "Ch": 2078,
      "##unya": 2079,
      "seperti": 2080,
      "##mat": 2081,
      "##dapat": 2082,
      "##ow": 2083,
      "##ingg": 2084,
      "dia": 2085,
      "##tama": 2086,
      "##alu": 2087,
      "lagi": 2088,
      "##au": 2089,
      "##man": 2090,
      "##utu": 2091,
      "dapat": 2092,
      "perk": 2093,
      "##ihan": 2094,
      "##ungan": 2095,
      "kerana": 2096,
      "##hid": 2097,
      "##uti": 2098,
      "##anan": 2099,
      "##az": 2100,
      "##duk": 2101,
      "##usan": 2102,
      "##uhan": 2103,
      "##mas": 2104,
      "##imp": 2105,
      "##anu": 2106,
      "##ajaan": 2107,
      "##iz": 2108,
      "##ation": 2109,
      "##lat": 2110,
      "##ig": 2111,
      "Sem": 2112,
      "PER": 2113,
      "##inggi": 2114,
      "##bu": 2115,
      "PEN": 2116,
      "##ont": 2117,
      "ni": 2118,
      "10": 2119,
      "apa": 2120,
      "##ungk": 2121,
      "##angkan": 2122,
      "##cara": 2123,
      "menc": 2124,
      "##arah": 2125,
      "ses": 2126,
      "Bah": 2127,
      "##UR": 2128,
      "ag": 2129,
      "##diri": 2130,
      "##ch": 2131,
      "anak": 2132,
      "##iau": 2133,
      "negara": 2134,
      "##etu": 2135,
      "##utan": 2136,
      "##olah": 2137,
      "pas": 2138,
      "kami": 2139,
      "##enar": 2140,
      "##IK": 2141,
      "##uar": 2142,
      "##hir": 2143,
      "Ar": 2144,
      "##tion": 2145,
      "##osi": 2146,
      "##umah": 2147,
      "As": 2148,
      "terb": 2149,
      "##TA": 2150,
      "Pemb": 2151,
      "##IS": 2152,
      "##ran": 2153,
      "min": 2154,
      "##lum": 2155,
      "mengh": 2156,
      "##iran": 2157,
      "##matan": 2158,
      "##upakan": 2159,
      "Pem": 2160,
      "##esar": 2161,
      "##lis": 2162,
      "keb": 2163,
      "nak": 2164,
      "Neg": 2165,
      "##antu": 2166,
      "##ve": 2167,
      "##ES": 2168,
      "ap": 2169,
      "##ima": 2170,
      "masa": 2171,
      "##elajar": 2172,
      "memp": 2173,
      "secara": 2174,
      "##isi": 2175,
      "##adap": 2176,
      "tan": 2177,
      "##ON": 2178,
      "##ilik": 2179,
      "merupakan": 2180,
      "##est": 2181,
      "##dang": 2182,
      "##unan": 2183,
      "##atkan": 2184,
      "tersebut": 2185,
      "##omp": 2186,
      "##int": 2187,
      "##ingga": 2188,
      "##agian": 2189,
      "berb": 2190,
      "##ine": 2191,
      "semua": 2192,
      "##anti": 2193,
      "##inya": 2194,
      "tu": 2195,
      "##apan": 2196,
      "perlu": 2197,
      "##anak": 2198,
      "Ab": 2199,
      "##ger": 2200,
      "##ort": 2201,
      "##ob": 2202,
      "Kem": 2203,
      "##umb": 2204,
      "##dikan": 2205,
      "Sel": 2206,
      "##edia": 2207,
      "##ram": 2208,
      "##elum": 2209,
      "SE": 2210,
      "lalu": 2211,
      "##urut": 2212,
      "##OL": 2213,
      "##ahu": 2214,
      "##US": 2215,
      "Se": 2216,
      "kep": 2217,
      "si": 2218,
      "baru": 2219,
      "pun": 2220,
      "menj": 2221,
      "##aian": 2222,
      "mana": 2223,
      "##usi": 2224,
      "Dan": 2225,
      "##AD": 2226,
      "##ikat": 2227,
      "Allah": 2228,
      "bukan": 2229,
      "Am": 2230,
      "##AI": 2231,
      "##aga": 2232,
      "##tika": 2233,
      "##anita": 2234,
      "##log": 2235,
      "##ra": 2236,
      "Mela": 2237,
      "teta": 2238,
      "##yah": 2239,
      "sah": 2240,
      "##ust": 2241,
      "Dalam": 2242,
      "ia": 2243,
      "Sek": 2244,
      "ken": 2245,
      "beb": 2246,
      "##empat": 2247,
      "##uru": 2248,
      "Meng": 2249,
      "atas": 2250,
      "##pas": 2251,
      "##akat": 2252,
      "kaw": 2253,
      "Moh": 2254,
      "##its": 2255,
      "ti": 2256,
      "sama": 2257,
      "##enteri": 2258,
      "##yu": 2259,
      "Ak": 2260,
      "##api": 2261,
      "Mer": 2262,
      "200": 2263,
      "Seb": 2264,
      "##tif": 2265,
      "##unyai": 2266,
      "dah": 2267,
      "Untuk": 2268,
      "Mas": 2269,
      "##unia": 2270,
      "DA": 2271,
      "##awatan": 2272,
      "sebuah": 2273,
      "bahawa": 2274,
      "##angat": 2275,
      "##ARA": 2276,
      "##wa": 2277,
      "##laku": 2278,
      "memberi": 2279,
      "##AJ": 2280,
      "banyak": 2281,
      "kec": 2282,
      "##ingan": 2283,
      "Ku": 2284,
      "##ef": 2285,
      "KE": 2286,
      "##ce": 2287,
      "mempunyai": 2288,
      "Ini": 2289,
      "##lui": 2290,
      "peny": 2291,
      "Yang": 2292,
      "antara": 2293,
      "##IL": 2294,
      "##one": 2295,
      "terh": 2296,
      "##ual": 2297,
      "##imb": 2298,
      "##mp": 2299,
      "en": 2300,
      "##alau": 2301,
      "hanya": 2302,
      "##udi": 2303,
      "##ni": 2304,
      "dua": 2305,
      "ar": 2306,
      "So": 2307,
      "seorang": 2308,
      "##aikan": 2309,
      "ialah": 2310,
      "serta": 2311,
      "har": 2312,
      "##ihak": 2313,
      "##th": 2314,
      "Sela": 2315,
      "Saya": 2316,
      "##na": 2317,
      "##ota": 2318,
      "##amai": 2319,
      "Ap": 2320,
      "##inan": 2321,
      "##esi": 2322,
      "##ING": 2323,
      "baik": 2324,
      "##mad": 2325,
      "Ah": 2326,
      "kel": 2327,
      "##edah": 2328,
      "berkata": 2329,
      "##ongan": 2330,
      "##ambil": 2331,
      "Mak": 2332,
      "##akyat": 2333,
      "sel": 2334,
      "rumah": 2335,
      "##eli": 2336,
      "##abila": 2337,
      "##AW": 2338,
      "##era": 2339,
      "##sih": 2340,
      "##alkan": 2341,
      "##nah": 2342,
      "##asil": 2343,
      "Dat": 2344,
      "##elaki": 2345,
      "sele": 2346,
      "##ts": 2347,
      "Ind": 2348,
      "beliau": 2349,
      "##ting": 2350,
      "##ungi": 2351,
      "Tag": 2352,
      "##adan": 2353,
      "##unc": 2354,
      "##didikan": 2355,
      "bi": 2356,
      "##entang": 2357,
      "12": 2358,
      "##arik": 2359,
      "DAN": 2360,
      "##ail": 2361,
      "seh": 2362,
      "com": 2363,
      "dip": 2364,
      "diper": 2365,
      "##unj": 2366,
      "tinggi": 2367,
      "##ons": 2368,
      "St": 2369,
      "##las": 2370,
      "bert": 2371,
      "kata": 2372,
      "##OR": 2373,
      "##atanya": 2374,
      "##orm": 2375,
      "##ori": 2376,
      "##tiv": 2377,
      "##eo": 2378,
      "sej": 2379,
      "pers": 2380,
      "Pel": 2381,
      "so": 2382,
      "Perk": 2383,
      "##aha": 2384,
      "##gram": 2385,
      "dit": 2386,
      "##iri": 2387,
      "##IT": 2388,
      "sebelum": 2389,
      "##aitu": 2390,
      "##ajian": 2391,
      "Kes": 2392,
      "Melayu": 2393,
      "##andar": 2394,
      "##aca": 2395,
      "##AY": 2396,
      "hits": 2397,
      "##angsa": 2398,
      "menggunakan": 2399,
      "##uda": 2400,
      "##ira": 2401,
      "##erita": 2402,
      "##UK": 2403,
      "Kel": 2404,
      "##st": 2405,
      "Kh": 2406,
      "##lan": 2407,
      "##ess": 2408,
      "##erah": 2409,
      "sudah": 2410,
      "##UL": 2411,
      "##tiap": 2412,
      "##bat": 2413,
      "##dul": 2414,
      "##IM": 2415,
      "##erapa": 2416,
      "##dik": 2417,
      "##ulu": 2418,
      "##lumat": 2419,
      "##eh": 2420,
      "pol": 2421,
      "##ikut": 2422,
      "##lak": 2423,
      "##ov": 2424,
      "##jaya": 2425,
      "Pada": 2426,
      "##UM": 2427,
      "pula": 2428,
      "on": 2429,
      "Az": 2430,
      "##teri": 2431,
      "terhadap": 2432,
      "Tan": 2433,
      "bek": 2434,
      "##entuk": 2435,
      "##onal": 2436,
      "##ID": 2437,
      "##jap": 2438,
      "##IA": 2439,
      "pihak": 2440,
      "st": 2441,
      "##istem": 2442,
      "tetapi": 2443,
      "##yarikat": 2444,
      "##mi": 2445,
      "melalui": 2446,
      "selepas": 2447,
      "##lim": 2448,
      "mener": 2449,
      "aw": 2450,
      "##ses": 2451,
      "buat": 2452,
      "sendiri": 2453,
      "kerajaan": 2454,
      "##aji": 2455,
      "kelu": 2456,
      "##ulis": 2457,
      "berm": 2458,
      "kur": 2459,
      "##ani": 2460,
      "ked": 2461,
      "##engah": 2462,
      "##ma": 2463,
      "##enis": 2464,
      "##entu": 2465,
      "##olo": 2466,
      "##tak": 2467,
      "En": 2468,
      "The": 2469,
      "pelajar": 2470,
      "##ERAH": 2471,
      "Bel": 2472,
      "bersama": 2473,
      "kh": 2474,
      "##uang": 2475,
      "produk": 2476,
      "iaitu": 2477,
      "berh": 2478,
      "diri": 2479,
      "##inta": 2480,
      "besar": 2481,
      "mendapat": 2482,
      "##aun": 2483,
      "##den": 2484,
      "makan": 2485,
      "ketika": 2486,
      "##aling": 2487,
      "kar": 2488,
      "##ks": 2489,
      "##hidmatan": 2490,
      "kereta": 2491,
      "hid": 2492,
      "wanita": 2493,
      "##ekn": 2494,
      "2018": 2495,
      "##lik": 2496,
      "##ly": 2497,
      "us": 2498,
      "##atakan": 2499,
      "par": 2500,
      "##erja": 2501,
      "11": 2502,
      "dunia": 2503,
      "Negeri": 2504,
      "am": 2505,
      "beberapa": 2506,
      "##ev": 2507,
      "mengen": 2508,
      "15": 2509,
      "##ilihan": 2510,
      "##tua": 2511,
      "##ajlis": 2512,
      "masih": 2513,
      "##awah": 2514,
      "Par": 2515,
      "membuat": 2516,
      "##abatan": 2517,
      "UT": 2518,
      "res": 2519,
      "DAERAH": 2520,
      "sangat": 2521,
      "##akah": 2522,
      "ad": 2523,
      "##ologi": 2524,
      "pr": 2525,
      "bulan": 2526,
      "Th": 2527,
      "Lif": 2528,
      "##ateg": 2529,
      "berp": 2530,
      "##gin": 2531,
      "##agaan": 2532,
      "Ad": 2533,
      "##ungkin": 2534,
      "jadi": 2535,
      "##upun": 2536,
      "##ungg": 2537,
      "katanya": 2538,
      "##asar": 2539,
      "kom": 2540,
      "##inc": 2541,
      "##yarakat": 2542,
      "##tim": 2543,
      "##anusia": 2544,
      "Pak": 2545,
      "##elas": 2546,
      "Mah": 2547,
      "ku": 2548,
      "set": 2549,
      "PR": 2550,
      "apabila": 2551,
      "##uli": 2552,
      "##dap": 2553,
      "##epas": 2554,
      "##angunan": 2555,
      "sahaja": 2556,
      "air": 2557,
      "##upaya": 2558,
      "pend": 2559,
      "##ingkat": 2560,
      "##uatu": 2561,
      "##ers": 2562,
      "##ukkan": 2563,
      "terk": 2564,
      "##oc": 2565,
      "##ez": 2566,
      "##ohon": 2567,
      "Sep": 2568,
      "Anda": 2569,
      "jika": 2570,
      "Mar": 2571,
      "sep": 2572,
      "##atang": 2573,
      "su": 2574,
      "memper": 2575,
      "Tah": 2576,
      "setiap": 2577,
      "lelaki": 2578,
      "##umlah": 2579,
      "Aku": 2580,
      "##akit": 2581,
      "##mu": 2582,
      "##gan": 2583,
      "temp": 2584,
      "Pi": 2585,
      "##uku": 2586,
      "mur": 2587,
      "Keb": 2588,
      "kerja": 2589,
      "##any": 2590,
      "##bagai": 2591,
      "Menteri": 2592,
      "14": 2593,
      "sekolah": 2594,
      "##usat": 2595,
      "kawasan": 2596,
      "Si": 2597,
      "##ena": 2598,
      "Abdul": 2599,
      "kali": 2600,
      "##aat": 2601,
      "13": 2602,
      "##ment": 2603,
      "BER": 2604,
      "Kuala": 2605,
      "la": 2606,
      "for": 2607,
      "##aki": 2608,
      "##alik": 2609,
      "Mohd": 2610,
      "##iver": 2611,
      "mend": 2612,
      "##ember": 2613,
      "samp": 2614,
      "##tikan": 2615,
      "Kami": 2616,
      "digunakan": 2617,
      "tentang": 2618,
      "##ear": 2619,
      "##ei": 2620,
      "##tis": 2621,
      "tr": 2622,
      "utama": 2623,
      "##ekan": 2624,
      "##igh": 2625,
      "##ENG": 2626,
      "Sy": 2627,
      "##amun": 2628,
      "##unga": 2629,
      "##ilai": 2630,
      "##engg": 2631,
      "dir": 2632,
      "Dengan": 2633,
      "##tern": 2634,
      "Kerajaan": 2635,
      "##ook": 2636,
      "##mana": 2637,
      "##aerah": 2638,
      "Ag": 2639,
      "##onom": 2640,
      "##engk": 2641,
      "##AB": 2642,
      "tempat": 2643,
      "##jaw": 2644,
      "##IR": 2645,
      "Ser": 2646,
      "##jalan": 2647,
      "rakyat": 2648,
      "##aitan": 2649,
      "##tur": 2650,
      "mes": 2651,
      "terle": 2652,
      "##ATAN": 2653,
      "Pol": 2654,
      "PENG": 2655,
      "##masuk": 2656,
      "##otel": 2657,
      "cara": 2658,
      "##akar": 2659,
      "negeri": 2660,
      "##endah": 2661,
      "##otak": 2662,
      "##ug": 2663,
      "Or": 2664,
      "##tar": 2665,
      "##sa": 2666,
      "##INTA": 2667,
      "dih": 2668,
      "##ipta": 2669,
      "##aliti": 2670,
      "##abi": 2671,
      "terus": 2672,
      "##ensi": 2673,
      "TAH": 2674,
      "berd": 2675,
      "Pas": 2676,
      "##angor": 2677,
      "##UT": 2678,
      "##elajaran": 2679,
      "Set": 2680,
      "this": 2681,
      "Hari": 2682,
      "manusia": 2683,
      "tahu": 2684,
      "##ebab": 2685,
      "Peny": 2686,
      "##jek": 2687,
      "##eja": 2688,
      "##ideo": 2689,
      "##alaman": 2690,
      "masyarakat": 2691,
      "##ilan": 2692,
      "masalah": 2693,
      "termasuk": 2694,
      "ah": 2695,
      "2016": 2696,
      "##uruh": 2697,
      "Pers": 2698,
      "##UAR": 2699,
      "bawah": 2700,
      "##anjang": 2701,
      "KINTA": 2702,
      "sini": 2703,
      "##uduk": 2704,
      "ramai": 2705,
      "hidup": 2706,
      "salah": 2707,
      "Dis": 2708,
      "Mus": 2709,
      "UTARA": 2710,
      "em": 2711,
      "##de": 2712,
      "PAS": 2713,
      "##ampung": 2714,
      "selam": 2715,
      "ka": 2716,
      "Selangor": 2717,
      "sela": 2718,
      "##rah": 2719,
      "isu": 2720,
      "##tiviti": 2721,
      "mungkin": 2722,
      "##amu": 2723,
      "Gr": 2724,
      "##aktu": 2725,
      "pertama": 2726,
      "Terb": 2727,
      "##onesia": 2728,
      "sekarang": 2729,
      "##av": 2730,
      "##aju": 2731,
      "##ilang": 2732,
      "##AAN": 2733,
      "Um": 2734,
      "Cat": 2735,
      "pernah": 2736,
      "##ahkan": 2737,
      "Jabatan": 2738,
      "30": 2739,
      "SEK": 2740,
      "Datuk": 2741,
      "##acam": 2742,
      "16": 2743,
      "##otor": 2744,
      "bin": 2745,
      "kanak": 2746,
      "Pin": 2747,
      "##amad": 2748,
      "Majlis": 2749,
      "##anggan": 2750,
      "terp": 2751,
      "Ras": 2752,
      "##urusan": 2753,
      "##umpulan": 2754,
      "##ord": 2755,
      "kek": 2756,
      "Produk": 2757,
      "##ubungi": 2758,
      "##enc": 2759,
      "##ebabkan": 2760,
      "##askan": 2761,
      "##our": 2762,
      "##ff": 2763,
      "2017": 2764,
      "Mes": 2765,
      "mudah": 2766,
      "##ola": 2767,
      "##ustri": 2768,
      "##ambar": 2769,
      "harga": 2770,
      "sehingga": 2771,
      "pelbagai": 2772,
      "sekali": 2773,
      "##ital": 2774,
      "##gunaan": 2775,
      "##ate": 2776,
      "##aris": 2777,
      "Hak": 2778,
      "perm": 2779,
      "hingga": 2780,
      "##sihatan": 2781,
      "##EK": 2782,
      "##awai": 2783,
      "Sp": 2784,
      "##line": 2785,
      "##eks": 2786,
      "sk": 2787,
      "maklumat": 2788,
      "##itar": 2789,
      "TAHUN": 2790,
      "##iversi": 2791,
      "Muh": 2792,
      "pin": 2793,
      "##ore": 2794,
      "##AG": 2795,
      "Indonesia": 2796,
      "##omb": 2797,
      "Pr": 2798,
      "##wan": 2799,
      "guru": 2800,
      "man": 2801,
      "##onomi": 2802,
      "perc": 2803,
      "##itik": 2804,
      "at": 2805,
      "##lang": 2806,
      "DI": 2807,
      "Dari": 2808,
      "bahasa": 2809,
      "##ank": 2810,
      "perkara": 2811,
      "##ongsi": 2812,
      "blog": 2813,
      "Bahagian": 2814,
      "##umber": 2815,
      "##und": 2816,
      "17": 2817,
      "199": 2818,
      "18": 2819,
      "Ia": 2820,
      "##OLAH": 2821,
      "##etul": 2822,
      "sh": 2823,
      "pes": 2824,
      "tapi": 2825,
      "Mem": 2826,
      "hati": 2827,
      "sebab": 2828,
      "##ilih": 2829,
      "dem": 2830,
      "Har": 2831,
      "##AP": 2832,
      "ang": 2833,
      "##ambah": 2834,
      "Perm": 2835,
      "Sekolah": 2836,
      "##amah": 2837,
      "Tr": 2838,
      "masuk": 2839,
      "undang": 2840,
      "dil": 2841,
      "berlaku": 2842,
      "Sur": 2843,
      "Ti": 2844,
      "##EG": 2845,
      "pela": 2846,
      "SEM": 2847,
      "dim": 2848,
      "ab": 2849,
      "mula": 2850,
      "mengenai": 2851,
      "##ampu": 2852,
      "tanpa": 2853,
      "membantu": 2854,
      "##atif": 2855,
      "##elu": 2856,
      "##dai": 2857,
      "##anduan": 2858,
      "Ketua": 2859,
      "##han": 2860,
      "il": 2861,
      "##antan": 2862,
      "SEKOLAH": 2863,
      "##OG": 2864,
      "Pendidikan": 2865,
      "Negara": 2866,
      "##jawab": 2867,
      "##der": 2868,
      "syarikat": 2869,
      "pak": 2870,
      "##ost": 2871,
      "##ili": 2872,
      "##me": 2873,
      "paling": 2874,
      "Kereta": 2875,
      "##egi": 2876,
      "Pula": 2877,
      "##guna": 2878,
      "be": 2879,
      "##ender": 2880,
      "##uman": 2881,
      "Kep": 2882,
      "IN": 2883,
      "##TAN": 2884,
      "nama": 2885,
      "##OM": 2886,
      "##oy": 2887,
      "##ler": 2888,
      "semasa": 2889,
      "##ach": 2890,
      "Ib": 2891,
      "turut": 2892,
      "##udian": 2893,
      "Bahasa": 2894,
      "mata": 2895,
      "um": 2896,
      "##utusan": 2897,
      "berken": 2898,
      "perb": 2899,
      "AS": 2900,
      "Joh": 2901,
      "Tak": 2902,
      "terletak": 2903,
      "Unit": 2904,
      "##ju": 2905,
      "Hotel": 2906,
      "##etak": 2907,
      "kini": 2908,
      "ek": 2909,
      "injap": 2910,
      "##uas": 2911,
      "##atus": 2912,
      "ibu": 2913,
      "##uskan": 2914,
      "##elamatan": 2915,
      "sur": 2916,
      "##alangan": 2917,
      "mengg": 2918,
      "Seri": 2919,
      "Jika": 2920,
      "sistem": 2921,
      "##alaupun": 2922,
      "melihat": 2923,
      "##ekerja": 2924,
      "##adaan": 2925,
      "kira": 2926,
      "semula": 2927,
      "##ity": 2928,
      "##ajib": 2929,
      "##idang": 2930,
      "Bers": 2931,
      "And": 2932,
      "Res": 2933,
      "jam": 2934,
      "Blog": 2935,
      "##anding": 2936,
      "wh": 2937,
      "##itam": 2938,
      "kedua": 2939,
      "##ru": 2940,
      "Pulau": 2941,
      "Sab": 2942,
      "cont": 2943,
      "2014": 2944,
      "##UH": 2945,
      "##adar": 2946,
      "lama": 2947,
      "##roid": 2948,
      "##raf": 2949,
      "##ubungan": 2950,
      "mod": 2951,
      "##ris": 2952,
      "Aw": 2953,
      "##ond": 2954,
      "##ikir": 2955,
      "##OH": 2956,
      "##inggu": 2957,
      "##arat": 2958,
      "China": 2959,
      "tiga": 2960,
      "diberi": 2961,
      "##ard": 2962,
      "##agu": 2963,
      "##ader": 2964,
      "berkenaan": 2965,
      "##ator": 2966,
      "luar": 2967,
      "##embali": 2968,
      "agama": 2969,
      "Air": 2970,
      "##ayar": 2971,
      "##kuasa": 2972,
      "##uma": 2973,
      "Ahmad": 2974,
      "MES": 2975,
      "##eter": 2976,
      "##oran": 2977,
      "##ee": 2978,
      "bentuk": 2979,
      "jenis": 2980,
      "akhir": 2981,
      "On": 2982,
      "mengambil": 2983,
      "seg": 2984,
      "kurang": 2985,
      "penting": 2986,
      "##ediakan": 2987,
      "Ins": 2988,
      "##urun": 2989,
      "AL": 2990,
      "##ASA": 2991,
      "emas": 2992,
      "##agaimana": 2993,
      "rasa": 2994,
      "bak": 2995,
      "##hi": 2996,
      "UM": 2997,
      "##uai": 2998,
      "##indakan": 2999,
      "mahu": 3000,
      "##akin": 3001,
      "ahli": 3002,
      "Bunga": 3003,
      "##upan": 3004,
      "##unjukkan": 3005,
      "kalau": 3006,
      "tel": 3007,
      "##IAN": 3008,
      "sp": 3009,
      "maka": 3010,
      "ins": 3011,
      "##anggung": 3012,
      "Kotak": 3013,
      "##ammad": 3014,
      "##untu": 3015,
      "##usnya": 3016,
      "##kukan": 3017,
      "##se": 3018,
      "##ET": 3019,
      "Beliau": 3020,
      "Perkhidmatan": 3021,
      "ind": 3022,
      "##isa": 3023,
      "bila": 3024,
      "hadi": 3025,
      "##vid": 3026,
      "kat": 3027,
      "##20": 3028,
      "##dia": 3029,
      "##adang": 3030,
      "para": 3031,
      "##ci": 3032,
      "macam": 3033,
      "IS": 3034,
      "Tidak": 3035,
      "24": 3036,
      "##egawai": 3037,
      "##arna": 3038,
      "##uba": 3039,
      "memang": 3040,
      "2015": 3041,
      "##niagaan": 3042,
      "jalan": 3043,
      "lah": 3044,
      "##ejabat": 3045,
      "memas": 3046,
      "##ibat": 3047,
      "##epat": 3048,
      "pert": 3049,
      "##din": 3050,
      "Shah": 3051,
      "Sen": 3052,
      "##duc": 3053,
      "bahan": 3054,
      "Kom": 3055,
      "##awan": 3056,
      "program": 3057,
      "el": 3058,
      "Kec": 3059,
      "##ith": 3060,
      "Apa": 3061,
      "laman": 3062,
      "##eknologi": 3063,
      "murid": 3064,
      "##iversiti": 3065,
      "##osial": 3066,
      "##asih": 3067,
      "##NO": 3068,
      "pilihan": 3069,
      "##isah": 3070,
      "Hadi": 3071,
      "berc": 3072,
      "##ohonan": 3073,
      "dij": 3074,
      "##angka": 3075,
      "##angsaan": 3076,
      "sesuatu": 3077,
      "betul": 3078,
      "##engar": 3079,
      "PEL": 3080,
      "##ujud": 3081,
      "##form": 3082,
      "Alam": 3083,
      "keh": 3084,
      "suka": 3085,
      "##enarai": 3086,
      "melakukan": 3087,
      "mah": 3088,
      "Tahun": 3089,
      "##YUAR": 3090,
      "##YUARAT": 3091,
      "MESYUARAT": 3092,
      "##resi": 3093,
      "Rah": 3094,
      "kajian": 3095,
      "##ultan": 3096,
      "##lukan": 3097,
      "##uri": 3098,
      "that": 3099,
      "##iliki": 3100,
      "juta": 3101,
      "##titu": 3102,
      "berkaitan": 3103,
      "Dia": 3104,
      "##erb": 3105,
      "malam": 3106,
      "Cara": 3107,
      "##itan": 3108,
      "Man": 3109,
      "sy": 3110,
      "##atian": 3111,
      "##ry": 3112,
      "##min": 3113,
      "##hidupan": 3114,
      "##ihara": 3115,
      "##egitu": 3116,
      "##por": 3117,
      "##ekat": 3118,
      "##umpur": 3119,
      "##epan": 3120,
      "##mar": 3121,
      "25": 3122,
      "##asarkan": 3123,
      "ingin": 3124,
      "##ilem": 3125,
      "##yakit": 3126,
      "MEN": 3127,
      "kecil": 3128,
      "Us": 3129,
      "Kita": 3130,
      "lap": 3131,
      "New": 3132,
      "##enang": 3133,
      "##ular": 3134,
      "datang": 3135,
      "##ge": 3136,
      "##ulang": 3137,
      "supaya": 3138,
      "##tikel": 3139,
      "tiada": 3140,
      "##lakukan": 3141,
      "Harga": 3142,
      "##rop": 3143,
      "##ous": 3144,
      "##akhir": 3145,
      "pendidikan": 3146,
      "Laman": 3147,
      "21": 3148,
      "bahagian": 3149,
      "##alas": 3150,
      "sus": 3151,
      "##pek": 3152,
      "awal": 3153,
      "terdapat": 3154,
      "##uhi": 3155,
      "##aksi": 3156,
      "Berk": 3157,
      "##kini": 3158,
      "raya": 3159,
      "kon": 3160,
      "str": 3161,
      "##iba": 3162,
      "##ikasi": 3163,
      "dic": 3164,
      "sebenar": 3165,
      "##atik": 3166,
      "##yataan": 3167,
      "##ungkusan": 3168,
      "Ada": 3169,
      "politik": 3170,
      "BIN": 3171,
      "tert": 3172,
      "penc": 3173,
      "PEM": 3174,
      "ex": 3175,
      "Pes": 3176,
      "mampu": 3177,
      "din": 3178,
      "##ahw": 3179,
      "dilakukan": 3180,
      "terbaik": 3181,
      "##UAN": 3182,
      "##ikal": 3183,
      "Pusat": 3184,
      "##ahiran": 3185,
      "100": 3186,
      "Go": 3187,
      "KON": 3188,
      "##eti": 3189,
      "##IH": 3190,
      "##osp": 3191,
      "##perasi": 3192,
      "##ARAN": 3193,
      "Ben": 3194,
      "Senarai": 3195,
      "##dana": 3196,
      "diken": 3197,
      "sedang": 3198,
      "##enterian": 3199,
      "##aku": 3200,
      "##ld": 3201,
      "##anjut": 3202,
      "Min": 3203,
      "mencari": 3204,
      "makanan": 3205,
      "##empuan": 3206,
      "Lumpur": 3207,
      "Bon": 3208,
      "Johor": 3209,
      "berada": 3210,
      "##ingkatkan": 3211,
      "##ham": 3212,
      "##ill": 3213,
      "Jalan": 3214,
      "badan": 3215,
      "##ubah": 3216,
      "ik": 3217,
      "ras": 3218,
      "##ome": 3219,
      "keadaan": 3220,
      "rendah": 3221,
      "Orang": 3222,
      "##ukar": 3223,
      "isteri": 3224,
      "pengh": 3225,
      "Memb": 3226,
      "parti": 3227,
      "##ERI": 3228,
      "pan": 3229,
      "Hubungi": 3230,
      "gol": 3231,
      "Tim": 3232,
      "masing": 3233,
      "##qu": 3234,
      "##ou": 3235,
      "##endak": 3236,
      "ilmu": 3237,
      "##eal": 3238,
      "##yen": 3239,
      "Bi": 3240,
      "22": 3241,
      "hak": 3242,
      "##angkah": 3243,
      "##te": 3244,
      "##OK": 3245,
      "##asional": 3246,
      "mengikut": 3247,
      "##tad": 3248,
      "##rom": 3249,
      "##elihara": 3250,
      "##antuan": 3251,
      "Muhammad": 3252,
      "Dew": 3253,
      "##all": 3254,
      "Bin": 3255,
      "##uz": 3256,
      "##lasan": 3257,
      "Pengurusan": 3258,
      "##jid": 3259,
      "keluarga": 3260,
      "##impin": 3261,
      "Program": 3262,
      "##enti": 3263,
      "##land": 3264,
      "##angsung": 3265,
      "Bagi": 3266,
      "##ikan": 3267,
      "##alian": 3268,
      "memberikan": 3269,
      "Kelantan": 3270,
      "##lo": 3271,
      "proses": 3272,
      "BIL": 3273,
      "##ekal": 3274,
      "##TI": 3275,
      "##ospital": 3276,
      "##ungai": 3277,
      "keluar": 3278,
      "Co": 3279,
      "##ubahan": 3280,
      "##daf": 3281,
      "##ulit": 3282,
      "menerima": 3283,
      "kemudian": 3284,
      "UN": 3285,
      "##inggal": 3286,
      "##age": 3287,
      "web": 3288,
      "data": 3289,
      "cerita": 3290,
      "##divid": 3291,
      "menunjukkan": 3292,
      "##upa": 3293,
      "US": 3294,
      "kamu": 3295,
      "sampai": 3296,
      "Anak": 3297,
      "##lalu": 3298,
      "selama": 3299,
      "##mb": 3300,
      "minyak": 3301,
      "Kesihatan": 3302,
      "TER": 3303,
      "ur": 3304,
      "##ajar": 3305,
      "cuk": 3306,
      "Mei": 3307,
      "Daerah": 3308,
      "##UNG": 3309,
      "Video": 3310,
      "##sanakan": 3311,
      "##akap": 3312,
      "kan": 3313,
      "Sej": 3314,
      "UMNO": 3315,
      "No": 3316,
      "##awat": 3317,
      "##aks": 3318,
      "##ton": 3319,
      "sun": 3320,
      "##als": 3321,
      "kehidupan": 3322,
      "Hy": 3323,
      "Mereka": 3324,
      "##esen": 3325,
      "Android": 3326,
      "##tud": 3327,
      "je": 3328,
      "Ken": 3329,
      "hal": 3330,
      "Rumah": 3331,
      "aktiviti": 3332,
      "hasil": 3333,
      "berjaya": 3334,
      "##LE": 3335,
      "##ilangan": 3336,
      "ac": 3337,
      "Mat": 3338,
      "sed": 3339,
      "con": 3340,
      "##ha": 3341,
      "##lic": 3342,
      "##bil": 3343,
      "##ategori": 3344,
      "##engganu": 3345,
      "##oz": 3346,
      "kembali": 3347,
      "Ass": 3348,
      "Tempat": 3349,
      "bay": 3350,
      "dig": 3351,
      "##lin": 3352,
      "Oleh": 3353,
      "##ambut": 3354,
      "Sultan": 3355,
      "##sik": 3356,
      "sejak": 3357,
      "##anggungjawab": 3358,
      "Tun": 3359,
      "##apkan": 3360,
      "sebanyak": 3361,
      "komp": 3362,
      "keluli": 3363,
      "##ahui": 3364,
      "tindakan": 3365,
      "##ert": 3366,
      "mul": 3367,
      "##ED": 3368,
      "##ne": 3369,
      "##OS": 3370,
      "Jawatan": 3371,
      "Antara": 3372,
      "##ji": 3373,
      "Dr": 3374,
      "##pan": 3375,
      "##esa": 3376,
      "pasti": 3377,
      "##ajah": 3378,
      "ket": 3379,
      "diter": 3380,
      "tanah": 3381,
      "memer": 3382,
      "##uhkan": 3383,
      "biasa": 3384,
      "dibuat": 3385,
      "##entera": 3386,
      "00": 3387,
      "Namun": 3388,
      "pemer": 3389,
      "##antar": 3390,
      "##anda": 3391,
      "membawa": 3392,
      "##yarat": 3393,
      "##ura": 3394,
      "Terengganu": 3395,
      "pergi": 3396,
      "Makan": 3397,
      "##oll": 3398,
      "amat": 3399,
      "nilai": 3400,
      "Sistem": 3401,
      "buah": 3402,
      "##amanya": 3403,
      "media": 3404,
      "lepas": 3405,
      "Semua": 3406,
      "Tinggi": 3407,
      "##AMA": 3408,
      "##port": 3409,
      "agar": 3410,
      "Quran": 3411,
      "##kamah": 3412,
      "penj": 3413,
      "benar": 3414,
      "ganti": 3415,
      "Nor": 3416,
      "Wanita": 3417,
      "mis": 3418,
      "Panduan": 3419,
      "Menurut": 3420,
      "##adah": 3421,
      "Perb": 3422,
      "berg": 3423,
      "Lap": 3424,
      "KONE": 3425,
      "##ilayah": 3426,
      "000": 3427,
      "##autan": 3428,
      "alam": 3429,
      "Injap": 3430,
      "Ahli": 3431,
      "mat": 3432,
      "Motor": 3433,
      "perkhidmatan": 3434,
      "Tanah": 3435,
      "##USAN": 3436,
      "pet": 3437,
      "##iranya": 3438,
      "kos": 3439,
      "##IKAN": 3440,
      "with": 3441,
      "Perdana": 3442,
      "##ANGAN": 3443,
      "gun": 3444,
      "##eles": 3445,
      "##wak": 3446,
      "##ast": 3447,
      "Sk": 3448,
      "##apai": 3449,
      "ayat": 3450,
      "ekonomi": 3451,
      "##UB": 3452,
      "##ss": 3453,
      "Put": 3454,
      "Kalau": 3455,
      "keper": 3456,
      "MAL": 3457,
      "waktu": 3458,
      "Syarikat": 3459,
      "seluruh": 3460,
      "komun": 3461,
      "tuj": 3462,
      "##okok": 3463,
      "Perak": 3464,
      "##residen": 3465,
      "Im": 3466,
      "harus": 3467,
      "begitu": 3468,
      "AN": 3469,
      "##uhnya": 3470,
      "##are": 3471,
      "##ains": 3472,
      "Jadi": 3473,
      "menarik": 3474,
      "##okong": 3475,
      "##etahui": 3476,
      "Kementerian": 3477,
      "sumber": 3478,
      "Ik": 3479,
      "Besar": 3480,
      "imp": 3481,
      "Bonus": 3482,
      "##wangan": 3483,
      "##alon": 3484,
      "23": 3485,
      "rakan": 3486,
      "##likasi": 3487,
      "##oto": 3488,
      "##uasa": 3489,
      "##uit": 3490,
      "##etah": 3491,
      "##rans": 3492,
      "##caya": 3493,
      "Ro": 3494,
      "wang": 3495,
      "##ungsi": 3496,
      "angg": 3497,
      "26": 3498,
      "are": 3499,
      "##dividu": 3500,
      "jumlah": 3501,
      "Lemb": 3502,
      "##lee": 3503,
      "pand": 3504,
      "beras": 3505,
      "##umi": 3506,
      "terut": 3507,
      "ma": 3508,
      "##no": 3509,
      "sekitar": 3510,
      "Kod": 3511,
      "##luan": 3512,
      "Keselamatan": 3513,
      "Catatan": 3514,
      "Ex": 3515,
      "##cipta": 3516,
      "Muslim": 3517,
      "menyebabkan": 3518,
      "##atihan": 3519,
      "im": 3520,
      "kumpulan": 3521,
      "khus": 3522,
      "perempuan": 3523,
      "Em": 3524,
      "keputusan": 3525,
      "Lo": 3526,
      "up": 3527,
      "##IC": 3528,
      "##uddin": 3529,
      "##enda": 3530,
      "##ex": 3531,
      "Pejabat": 3532,
      "bidang": 3533,
      "tiba": 3534,
      "Terp": 3535,
      "Kar": 3536,
      "##ement": 3537,
      "##fi": 3538,
      "Ram": 3539,
      "##ack": 3540,
      "Baru": 3541,
      "##aiz": 3542,
      "Tapi": 3543,
      "Selain": 3544,
      "##ikum": 3545,
      "belum": 3546,
      "Piec": 3547,
      "Ros": 3548,
      "usaha": 3549,
      "##ary": 3550,
      "##arikh": 3551,
      "Ele": 3552,
      "memiliki": 3553,
      "##ty": 3554,
      "RM": 3555,
      "##ebook": 3556,
      "##antung": 3557,
      "sosial": 3558,
      "Pap": 3559,
      "##ullah": 3560,
      "Fac": 3561,
      "sub": 3562,
      "##sten": 3563,
      "##sis": 3564,
      "sik": 3565,
      "Rakyat": 3566,
      "##erit": 3567,
      "##asatan": 3568,
      "##DA": 3569,
      "##antai": 3570,
      "var": 3571,
      "KER": 3572,
      "pekerja": 3573,
      "jen": 3574,
      "##kah": 3575,
      "Eng": 3576,
      "Dewan": 3577,
      "bandar": 3578,
      "##oa": 3579,
      "walaupun": 3580,
      "Pah": 3581,
      "tangan": 3582,
      "##ere": 3583,
      "pengalaman": 3584,
      "tahan": 3585,
      "depan": 3586,
      "##asilkan": 3587,
      "Maklumat": 3588,
      "Dasar": 3589,
      "Ju": 3590,
      "sesuai": 3591,
      "Li": 3592,
      "##aud": 3593,
      "Solat": 3594,
      "suami": 3595,
      "##erta": 3596,
      "##iks": 3597,
      "##elaka": 3598,
      "2013": 3599,
      "##ational": 3600,
      "perh": 3601,
      "##unction": 3602,
      "##amal": 3603,
      "jelas": 3604,
      "##utus": 3605,
      "2012": 3606,
      "sebarang": 3607,
      "gambar": 3608,
      "peringkat": 3609,
      "##ampak": 3610,
      "##entara": 3611,
      "Pembungkusan": 3612,
      "re": 3613,
      "Bandar": 3614,
      "##RAM": 3615,
      "##tadb": 3616,
      "At": 3617,
      "ch": 3618,
      "Online": 3619,
      "Port": 3620,
      "SH": 3621,
      "##erika": 3622,
      "##isasi": 3623,
      "##gh": 3624,
      "50": 3625,
      "kuasa": 3626,
      "##esan": 3627,
      "mendapatkan": 3628,
      "##sus": 3629,
      "##ekanan": 3630,
      "##tic": 3631,
      "did": 3632,
      "berj": 3633,
      "##air": 3634,
      "Raya": 3635,
      "Sub": 3636,
      "hubungan": 3637,
      "##ambahan": 3638,
      "##LIS": 3639,
      "##limen": 3640,
      "BAH": 3641,
      "ib": 3642,
      "Intern": 3643,
      "tahap": 3644,
      "##agam": 3645,
      "##ight": 3646,
      "Kur": 3647,
      "##ist": 3648,
      "Boleh": 3649,
      "function": 3650,
      "##jalanan": 3651,
      "kena": 3652,
      "##adakan": 3653,
      "##ema": 3654,
      "buku": 3655,
      "##ajaran": 3656,
      "##rib": 3657,
      "tempoh": 3658,
      "Kampung": 3659,
      "Amerika": 3660,
      "Pela": 3661,
      "##alaikum": 3662,
      "##intah": 3663,
      "kons": 3664,
      "mew": 3665,
      "Assalam": 3666,
      "hendak": 3667,
      "##amil": 3668,
      "perniagaan": 3669,
      "daerah": 3670,
      "Arab": 3671,
      "##aktor": 3672,
      "##ron": 3673,
      "namun": 3674,
      "##dag": 3675,
      "##eksi": 3676,
      "##adapan": 3677,
      "##elur": 3678,
      "##AC": 3679,
      "##aid": 3680,
      "##auh": 3681,
      "pembelajaran": 3682,
      "##agaiman": 3683,
      "Sal": 3684,
      "Mesin": 3685,
      "Merc": 3686,
      "##eed": 3687,
      "Dar": 3688,
      "##bangsa": 3689,
      "Rasul": 3690,
      "##apun": 3691,
      "penggunaan": 3692,
      "##ril": 3693,
      "cuba": 3694,
      "Buk": 3695,
      "##INGK": 3696,
      "Lihat": 3697,
      "##amat": 3698,
      "Berita": 3699,
      "##ARI": 3700,
      "Kebangsaan": 3701,
      "Car": 3702,
      "##get": 3703,
      "Universiti": 3704,
      "##antik": 3705,
      "##ork": 3706,
      "kela": 3707,
      "##usaha": 3708,
      "kenyataan": 3709,
      "##iv": 3710,
      "kaki": 3711,
      "##eza": 3712,
      "##KU": 3713,
      "##gas": 3714,
      "##ener": 3715,
      "2010": 3716,
      "industri": 3717,
      "semakin": 3718,
      "##ayang": 3719,
      "##jian": 3720,
      "##araan": 3721,
      "akaun": 3722,
      "Jun": 3723,
      "KU": 3724,
      "Br": 3725,
      "##ui": 3726,
      "##antaran": 3727,
      "pintu": 3728,
      "##tin": 3729,
      "##sc": 3730,
      "MAJ": 3731,
      "Su": 3732,
      "##irkan": 3733,
      "berdasarkan": 3734,
      "##SIA": 3735,
      "##ips": 3736,
      "##udaya": 3737,
      "##tiasa": 3738,
      "co": 3739,
      "tetap": 3740,
      "meningkatkan": 3741,
      "MALAY": 3742,
      "Raja": 3743,
      "##EP": 3744,
      "##unt": 3745,
      "##yam": 3746,
      "##rip": 3747,
      "##antikan": 3748,
      "##ie": 3749,
      "Wh": 3750,
      "27": 3751,
      "NEG": 3752,
      "##wat": 3753,
      "KEL": 3754,
      "Kedah": 3755,
      "Melaka": 3756,
      "Alat": 3757,
      "Sungai": 3758,
      "Hospital": 3759,
      "Penc": 3760,
      "kau": 3761,
      "Guru": 3762,
      "##andungan": 3763,
      "##ikian": 3764,
      "Najib": 3765,
      "##bah": 3766,
      "Nabi": 3767,
      "##gn": 3768,
      "Kota": 3769,
      "##ox": 3770,
      "minggu": 3771,
      "##ell": 3772,
      "Ang": 3773,
      "##jaman": 3774,
      "##eorang": 3775,
      "Ma": 3776,
      "perib": 3777,
      "##abit": 3778,
      "kalangan": 3779,
      "Ibu": 3780,
      "##ogle": 3781,
      "##ropah": 3782,
      "##ric": 3783,
      "##embangan": 3784,
      "##okongan": 3785,
      "balik": 3786,
      "keti": 3787,
      "he": 3788,
      "Str": 3789,
      "##yan": 3790,
      "ger": 3791,
      "##urkan": 3792,
      "Sus": 3793,
      "##eluarkan": 3794,
      "##awal": 3795,
      "##old": 3796,
      "##ink": 3797,
      "Eropah": 3798,
      "bilik": 3799,
      "Sara": 3800,
      "Kos": 3801,
      "pagi": 3802,
      "##iman": 3803,
      "##ekutu": 3804,
      "##000": 3805,
      "Kanak": 3806,
      "##inasi": 3807,
      "Pet": 3808,
      "Pegawai": 3809,
      "##dikit": 3810,
      "lak": 3811,
      "Terpelihara": 3812,
      "te": 3813,
      "##ence": 3814,
      "terl": 3815,
      "##ancangan": 3816,
      "##angun": 3817,
      "##egang": 3818,
      "jangan": 3819,
      "bekas": 3820,
      "##OGRAM": 3821,
      "##rahim": 3822,
      "kaum": 3823,
      "individu": 3824,
      "40": 3825,
      "##arian": 3826,
      "##arisan": 3827,
      "PROGRAM": 3828,
      "pemimpin": 3829,
      "Pembangunan": 3830,
      "Hal": 3831,
      "##50": 3832,
      "Permohonan": 3833,
      "##ial": 3834,
      "dok": 3835,
      "sedikit": 3836,
      "##own": 3837,
      "Sing": 3838,
      "jawatan": 3839,
      "##ualaikum": 3840,
      "Sabah": 3841,
      "Cont": 3842,
      "##etap": 3843,
      "##ukum": 3844,
      "saja": 3845,
      "log": 3846,
      "Mul": 3847,
      "penduduk": 3848,
      "##ersi": 3849,
      "##dapati": 3850,
      "##enaga": 3851,
      "##ood": 3852,
      "if": 3853,
      "##awi": 3854,
      "MAJLIS": 3855,
      "##opular": 3856,
      "segala": 3857,
      "ciri": 3858,
      "pusat": 3859,
      "##iksaan": 3860,
      "##aka": 3861,
      "Kerja": 3862,
      "Mac": 3863,
      "##ebat": 3864,
      "##ampir": 3865,
      "##alami": 3866,
      "not": 3867,
      "Facebook": 3868,
      "##anakala": 3869,
      "##ban": 3870,
      "##ibatkan": 3871,
      "##taran": 3872,
      "Ses": 3873,
      "##ungsten": 3874,
      "##elakang": 3875,
      "bermula": 3876,
      "##aklee": 3877,
      "##isik": 3878,
      "2011": 3879,
      "Kaw": 3880,
      "bertu": 3881,
      "##006": 3882,
      "##UD": 3883,
      "Artikel": 3884,
      "##ile": 3885,
      "198": 3886,
      "prof": 3887,
      "ditu": 3888,
      "##olong": 3889,
      "turun": 3890,
      "##jas": 3891,
      "semp": 3892,
      "##eknik": 3893,
      "tanda": 3894,
      "##andu": 3895,
      "##eluruhan": 3896,
      "Presiden": 3897,
      "Jenis": 3898,
      "organ": 3899,
      "##utih": 3900,
      "de": 3901,
      "Ek": 3902,
      "hitsM": 3903,
      "##inar": 3904,
      "Nov": 3905,
      "Jangan": 3906,
      "##lass": 3907,
      "##akw": 3908,
      "##ANAN": 3909,
      "kampung": 3910,
      "tengah": 3911,
      "sentiasa": 3912,
      "main": 3913,
      "pengguna": 3914,
      "golongan": 3915,
      "Pelanggan": 3916,
      "kemahiran": 3917,
      "kap": 3918,
      "Bul": 3919,
      "##inggalkan": 3920,
      "##KAN": 3921,
      "##iling": 3922,
      "Masa": 3923,
      "##angga": 3924,
      "umum": 3925,
      "peribadi": 3926,
      "bekalan": 3927,
      "##okasi": 3928,
      "Sept": 3929,
      "##aip": 3930,
      "pemain": 3931,
      "Hakcipta": 3932,
      "31": 3933,
      "##upayaan": 3934,
      "beli": 3935,
      "peratus": 3936,
      "mengur": 3937,
      "Yus": 3938,
      "##ait": 3939,
      "##war": 3940,
      "28": 3941,
      "Bay": 3942,
      "saat": 3943,
      "##ans": 3944,
      "pembangunan": 3945,
      "semalam": 3946,
      "##jah": 3947,
      "Pahang": 3948,
      "diberikan": 3949,
      "lanjut": 3950,
      "tim": 3951,
      "##ekutuan": 3952,
      "aut": 3953,
      "Taman": 3954,
      "seseorang": 3955,
      "##ct": 3956,
      "##ich": 3957,
      "##alahan": 3958,
      "El": 3959,
      "langkah": 3960,
      "AD": 3961,
      "kasih": 3962,
      "##aluan": 3963,
      "##buran": 3964,
      "polis": 3965,
      "Assalamualaikum": 3966,
      "##of": 3967,
      "Asia": 3968,
      "##ahagian": 3969,
      "##orong": 3970,
      "Com": 3971,
      "##ektr": 3972,
      "##ASI": 3973,
      "langsung": 3974,
      "##iew": 3975,
      "##ck": 3976,
      "Timur": 3977,
      "penuh": 3978,
      "menyediakan": 3979,
      "MALAYSIA": 3980,
      "from": 3981,
      "##ahami": 3982,
      "##sip": 3983,
      "##apak": 3984,
      "##jin": 3985,
      "dahulu": 3986,
      "EM": 3987,
      "berikut": 3988,
      "Dunia": 3989,
      "Hid": 3990,
      "Abu": 3991,
      "Buku": 3992,
      "India": 3993,
      "##jasama": 3994,
      "##kualiti": 3995,
      "Sec": 3996,
      "Tiada": 3997,
      "bas": 3998,
      "Tel": 3999,
      "##AKL": 4000,
      "setelah": 4001,
      "Prof": 4002,
      "aj": 4003,
      "##evel": 4004,
      "Parlimen": 4005,
      "kaedah": 4006,
      "Comp": 4007,
      "Ibrahim": 4008,
      "kesan": 4009,
      "Temp": 4010,
      "Ing": 4011,
      "##ulisan": 4012,
      "April": 4013,
      "memastikan": 4014,
      "Lebih": 4015,
      "empat": 4016,
      "##ca": 4017,
      "##ancang": 4018,
      "suatu": 4019,
      "Kertas": 4020,
      "bangsa": 4021,
      "Bag": 4022,
      "pat": 4023,
      "Ali": 4024,
      "Nama": 4025,
      "##usia": 4026,
      "Mahkamah": 4027,
      "bu": 4028,
      "##epi": 4029,
      "filem": 4030,
      "Google": 4031,
      "bekerja": 4032,
      "berf": 4033,
      "##eper": 4034,
      "##agaimanapun": 4035,
      "projek": 4036,
      "For": 4037,
      "##SI": 4038,
      "video": 4039,
      "belajar": 4040,
      "##alang": 4041,
      "PENGUR": 4042,
      "##tih": 4043,
      "##dapatan": 4044,
      "Mur": 4045,
      "##ANT": 4046,
      "##uny": 4047,
      "##ubatan": 4048,
      "keperluan": 4049,
      "Mohamad": 4050,
      "##ingkatan": 4051,
      "##ubung": 4052,
      "kertas": 4053,
      "Elev": 4054,
      "dulu": 4055,
      "##lange": 4056,
      "##ayu": 4057,
      "Lelaki": 4058,
      "cukup": 4059,
      "##sp": 4060,
      "Af": 4061,
      "warga": 4062,
      "##lob": 4063,
      "awam": 4064,
      "##alak": 4065,
      "##iza": 4066,
      "penyakit": 4067,
      "Sarawak": 4068,
      "Sri": 4069,
      "##AYA": 4070,
      "##isan": 4071,
      "##itamin": 4072,
      "Sun": 4073,
      "##fo": 4074,
      "##AND": 4075,
      "kitab": 4076,
      "##aham": 4077,
      "Elevator": 4078,
      "sakit": 4079,
      "Agama": 4080,
      "bagaimana": 4081,
      "##asaan": 4082,
      "##abar": 4083,
      "##uktur": 4084,
      "##elidikan": 4085,
      "##gos": 4086,
      "Nur": 4087,
      "Polis": 4088,
      "##atuan": 4089,
      "##RI": 4090,
      "rem": 4091,
      "Terkini": 4092,
      "Dir": 4093,
      "##entukan": 4094,
      "##gak": 4095,
      "Mod": 4096,
      "menjadikan": 4097,
      "##rid": 4098,
      "anggota": 4099,
      "pe": 4100,
      "int": 4101,
      "##udukan": 4102,
      "selain": 4103,
      "##bar": 4104,
      "Perh": 4105,
      "##ujuk": 4106,
      "warna": 4107,
      "dikenali": 4108,
      "peluang": 4109,
      "##EB": 4110,
      "mus": 4111,
      "##usim": 4112,
      "##ahun": 4113,
      "was": 4114,
      "##etahuan": 4115,
      "Pend": 4116,
      "##atur": 4117,
      "##sif": 4118,
      "bern": 4119,
      "Jumlah": 4120,
      "##ite": 4121,
      "##engkap": 4122,
      "sebenarnya": 4123,
      "mati": 4124,
      "Pengarah": 4125,
      "terakhir": 4126,
      "##ents": 4127,
      "##ect": 4128,
      "Pinang": 4129,
      "mesti": 4130,
      "##rat": 4131,
      "comp": 4132,
      "pembekal": 4133,
      "arah": 4134,
      "##ainan": 4135,
      "Selepas": 4136,
      "Rasulullah": 4137,
      "##adis": 4138,
      "resp": 4139,
      "barang": 4140,
      "pasukan": 4141,
      "##adapi": 4142,
      "##efon": 4143,
      "NEGERI": 4144,
      "AM": 4145,
      "kulit": 4146,
      "menulis": 4147,
      "pengajaran": 4148,
      "##ayat": 4149,
      "##adual": 4150,
      "##co": 4151,
      "##avig": 4152,
      "AP": 4153,
      "sal": 4154,
      "MEL": 4155,
      "##uter": 4156,
      "Ok": 4157,
      "muda": 4158,
      "##athir": 4159,
      "Jep": 4160,
      "##tadbiran": 4161,
      "Aziz": 4162,
      "Selamat": 4163,
      "Umno": 4164,
      "##erti": 4165,
      "tem": 4166,
      "bantuan": 4167,
      "agak": 4168,
      "Pilihan": 4169,
      "Tuan": 4170,
      "##ONG": 4171,
      "##angkat": 4172,
      "##uf": 4173,
      "Banyak": 4174,
      "##tions": 4175,
      "##men": 4176,
      "Cina": 4177,
      "29": 4178,
      "umat": 4179,
      "contoh": 4180,
      "##ech": 4181,
      "menjalan": 4182,
      "##apaian": 4183,
      "bapa": 4184,
      "dasar": 4185,
      "membaca": 4186,
      "##AIN": 4187,
      "mar": 4188,
      "berbanding": 4189,
      "calon": 4190,
      "##ole": 4191,
      "ing": 4192,
      "##yp": 4193,
      "Ked": 4194,
      "##ikiran": 4195,
      "##ning": 4196,
      "##ue": 4197,
      "panjang": 4198,
      "##ulai": 4199,
      "Hadiah": 4200,
      "##ayah": 4201,
      "##alator": 4202,
      "##utang": 4203,
      "Bank": 4204,
      "ob": 4205,
      "Val": 4206,
      "##olak": 4207,
      "dekat": 4208,
      "Teknologi": 4209,
      "##edes": 4210,
      "pandangan": 4211,
      "situ": 4212,
      "##encana": 4213,
      "##aksa": 4214,
      "Mel": 4215,
      "##her": 4216,
      "Ogos": 4217,
      "Semb": 4218,
      "mengand": 4219,
      "lemb": 4220,
      "Pam": 4221,
      "##try": 4222,
      "##akwa": 4223,
      "##UHAI": 4224,
      "##ams": 4225,
      "##TUK": 4226,
      "berita": 4227,
      "UP": 4228,
      "Sup": 4229,
      "##dil": 4230,
      "##ALAM": 4231,
      "Bukan": 4232,
      "it": 4233,
      "bur": 4234,
      "Sebagai": 4235,
      "##ewa": 4236,
      "perjalanan": 4237,
      "Raz": 4238,
      "##eluar": 4239,
      "##andard": 4240,
      "ayah": 4241,
      "##impinan": 4242,
      "soalan": 4243,
      "PEND": 4244,
      "berbeza": 4245,
      "kelas": 4246,
      "01": 4247,
      "bag": 4248,
      "##uanya": 4249,
      "kandungan": 4250,
      "##unuh": 4251,
      "##ersih": 4252,
      "mengatakan": 4253,
      "Persekutuan": 4254,
      "##ower": 4255,
      "menyatakan": 4256,
      "mencapai": 4257,
      "##elang": 4258,
      "La": 4259,
      "Masjid": 4260,
      "berl": 4261,
      "kuat": 4262,
      "ikan": 4263,
      "##IB": 4264,
      "sesi": 4265,
      "##cal": 4266,
      "PENGURUSAN": 4267,
      "Mahathir": 4268,
      "##anyakan": 4269,
      "khas": 4270,
      "##angkutan": 4271,
      "bebas": 4272,
      "Makanan": 4273,
      "##alatan": 4274,
      "##akkan": 4275,
      "##zah": 4276,
      "##IP": 4277,
      "##abat": 4278,
      "Feb": 4279,
      "##adem": 4280,
      "##art": 4281,
      "Haji": 4282,
      "##sanaan": 4283,
      "##AWATAN": 4284,
      "rep": 4285,
      "Satu": 4286,
      "lay": 4287,
      "Bagaimana": 4288,
      "##ilion": 4289,
      "Ac": 4290,
      "sepanjang": 4291,
      "##gu": 4292,
      "Nasional": 4293,
      "##inaan": 4294,
      "Jer": 4295,
      "##enal": 4296,
      "posi": 4297,
      "lima": 4298,
      "##UMP": 4299,
      "Bila": 4300,
      "##idur": 4301,
      "##asihat": 4302,
      "surat": 4303,
      "naik": 4304,
      "Nik": 4305,
      "##OT": 4306,
      "kej": 4307,
      "DAP": 4308,
      "##ase": 4309,
      "##ekatan": 4310,
      "Le": 4311,
      "siasatan": 4312,
      "op": 4313,
      "##ancis": 4314,
      "##erusi": 4315,
      "##juan": 4316,
      "dilihat": 4317,
      "asal": 4318,
      "##jadian": 4319,
      "##ave": 4320,
      "Shaklee": 4321,
      "##ALA": 4322,
      "##ahwin": 4323,
      "perubahan": 4324,
      "Badan": 4325,
      "Komun": 4326,
      "tungg": 4327,
      "AB": 4328,
      "##anggap": 4329,
      "Sw": 4330,
      "Sukan": 4331,
      "##ublic": 4332,
      "Jepun": 4333,
      "##uch": 4334,
      "##istik": 4335,
      "dag": 4336,
      "Grader": 4337,
      "##enderaan": 4338,
      "jaw": 4339,
      "tujuan": 4340,
      "35": 4341,
      "memerlukan": 4342,
      "##tia": 4343,
      "Bersama": 4344,
      "Dato": 4345,
      "##timedia": 4346,
      "Con": 4347,
      "terlalu": 4348,
      "##awaran": 4349,
      "##udahan": 4350,
      "SEL": 4351,
      "Sebelum": 4352,
      "huj": 4353,
      "Apabila": 4354,
      "##titusi": 4355,
      "hampir": 4356,
      "bisa": 4357,
      "##hidmat": 4358,
      "zaman": 4359,
      "bakal": 4360,
      "##impan": 4361,
      "eks": 4362,
      "Has": 4363,
      "Bar": 4364,
      "Utama": 4365,
      "IP": 4366,
      "##EJ": 4367,
      "pelak": 4368,
      "keseluruhan": 4369,
      "##umen": 4370,
      "Hi": 4371,
      "##impi": 4372,
      "##riv": 4373,
      "cer": 4374,
      "selalu": 4375,
      "es": 4376,
      "##ild": 4377,
      "Apakah": 4378,
      "##adu": 4379,
      "##imbalan": 4380,
      "Gambar": 4381,
      "kawan": 4382,
      "Kemas": 4383,
      "##30": 4384,
      "Tw": 4385,
      "##isme": 4386,
      "Portal": 4387,
      "Sila": 4388,
      "##orpor": 4389,
      "Singap": 4390,
      "Pener": 4391,
      "##umpang": 4392,
      "tempatan": 4393,
      "##ide": 4394,
      "Penj": 4395,
      "##uki": 4396,
      "belakang": 4397,
      "baharu": 4398,
      "Meny": 4399,
      "Pemain": 4400,
      "Media": 4401,
      "##ATA": 4402,
      "YANG": 4403,
      "September": 4404,
      "Disember": 4405,
      "##angi": 4406,
      "kilang": 4407,
      "tadi": 4408,
      "##les": 4409,
      "kesihatan": 4410,
      "Benz": 4411,
      "##vic": 4412,
      "Gh": 4413,
      "mengin": 4414,
      "solat": 4415,
      "melibatkan": 4416,
      "Janu": 4417,
      "tertentu": 4418,
      "asas": 4419,
      "##bur": 4420,
      "has": 4421,
      "laut": 4422,
      "Selatan": 4423,
      "##abung": 4424,
      "kisah": 4425,
      "##imum": 4426,
      "dikatakan": 4427,
      "Azmi": 4428,
      "##ance": 4429,
      "demikian": 4430,
      "##eliling": 4431,
      "teknologi": 4432,
      "akibat": 4433,
      "Abdullah": 4434,
      "##UKAN": 4435,
      "ide": 4436,
      "Fi": 4437,
      "Sains": 4438,
      "Mercedes": 4439,
      "##ory": 4440,
      "jauh": 4441,
      "Batu": 4442,
      "##out": 4443,
      "Mudah": 4444,
      "terkini": 4445,
      "##aedah": 4446,
      "##10": 4447,
      "##68": 4448,
      "menghasilkan": 4449,
      "pengetahuan": 4450,
      "berkualiti": 4451,
      "Ir": 4452,
      "##atas": 4453,
      "##ataan": 4454,
      "Barat": 4455,
      "##OD": 4456,
      "##estasi": 4457,
      "sering": 4458,
      "##lish": 4459,
      "Ph": 4460,
      "##EMB": 4461,
      "laporan": 4462,
      "##rin": 4463,
      "Semasa": 4464,
      "##ree": 4465,
      "terj": 4466,
      "wid": 4467,
      "##andingan": 4468,
      "##aturan": 4469,
      "##AF": 4470,
      "melak": 4471,
      "Pan": 4472,
      "Eks": 4473,
      "Be": 4474,
      "##amaan": 4475,
      "Ketika": 4476,
      "##inda": 4477,
      "sejarah": 4478,
      "It": 4479,
      "berat": 4480,
      "##lay": 4481,
      "cakap": 4482,
      "##ais": 4483,
      "Kepada": 4484,
      "##antas": 4485,
      "TEK": 4486,
      "pelanggan": 4487,
      "Aut": 4488,
      "Maz": 4489,
      "aspek": 4490,
      "buk": 4491,
      "Mo": 4492,
      "Bulan": 4493,
      "Rep": 4494,
      "##rit": 4495,
      "Kajian": 4496,
      "##res": 4497,
      "##uarat": 4498,
      "Komp": 4499,
      "Bukit": 4500,
      "rah": 4501,
      "##AHAN": 4502,
      "##yuarat": 4503,
      "##urus": 4504,
      "AK": 4505,
      "Awam": 4506,
      "##ainya": 4507,
      "hi": 4508,
      "##ahaya": 4509,
      "##ame": 4510,
      "##ebar": 4511,
      "##aa": 4512,
      "##asanya": 4513,
      "##entingan": 4514,
      "##dagangan": 4515,
      "##tanian": 4516,
      "2009": 4517,
      "##INGKAT": 4518,
      "##mah": 4519,
      "lihat": 4520,
      "##ock": 4521,
      "Sch": 4522,
      "##ifat": 4523,
      "##IDIKAN": 4524,
      "Op": 4525,
      "##eraan": 4526,
      "Sya": 4527,
      "cinta": 4528,
      "##daftar": 4529,
      "##aftar": 4530,
      "##heel": 4531,
      "Terbaik": 4532,
      "sokongan": 4533,
      "BERS": 4534,
      "lagu": 4535,
      "tambahan": 4536,
      "Fir": 4537,
      "kre": 4538,
      "Buat": 4539,
      "##alia": 4540,
      "##END": 4541,
      "##rol": 4542,
      "##ariah": 4543,
      "wilayah": 4544,
      "Undang": 4545,
      "##TER": 4546,
      "##ulkan": 4547,
      "duit": 4548,
      "cat": 4549,
      "##emah": 4550,
      "asing": 4551,
      "selamat": 4552,
      "##uger": 4553,
      "mengalami": 4554,
      "##uck": 4555,
      "Pert": 4556,
      "Itu": 4557,
      "##ikh": 4558,
      "panas": 4559,
      "Wan": 4560,
      "nya": 4561,
      "Ramadan": 4562,
      "Adakah": 4563,
      "Kata": 4564,
      "##buhan": 4565,
      "03": 4566,
      "##ASAN": 4567,
      "maj": 4568,
      "majlis": 4569,
      "##osa": 4570,
      "nanti": 4571,
      "##adisi": 4572,
      "##ish": 4573,
      "bilion": 4574,
      "##ations": 4575,
      "baca": 4576,
      "##anja": 4577,
      "Dic": 4578,
      "##erang": 4579,
      "PENDIDIKAN": 4580,
      "Post": 4581,
      "mangsa": 4582,
      "##oi": 4583,
      "sila": 4584,
      "Walaupun": 4585,
      "##udio": 4586,
      "##enai": 4587,
      "muka": 4588,
      "amalan": 4589,
      "##isiko": 4590,
      "Bahan": 4591,
      "gener": 4592,
      "##pun": 4593,
      "##UP": 4594,
      "##ght": 4595,
      "Lagu": 4596,
      "disebabkan": 4597,
      "##urn": 4598,
      "Penggunaan": 4599,
      "##AGI": 4600,
      "Jen": 4601,
      "Kumpulan": 4602,
      "sebahagian": 4603,
      "hitsMoh": 4604,
      "##OP": 4605,
      "PEMB": 4606,
      "pam": 4607,
      "##jalankan": 4608,
      "cepat": 4609,
      "##olehkan": 4610,
      "ditem": 4611,
      "##undi": 4612,
      "angk": 4613,
      "murah": 4614,
      "##audara": 4615,
      "Berh": 4616,
      "##etapkan": 4617,
      "Tips": 4618,
      "Bu": 4619,
      "Wheel": 4620,
      "##bih": 4621,
      "##arap": 4622,
      "Borang": 4623,
      "minimum": 4624,
      "Teta": 4625,
      "baju": 4626,
      "##ken": 4627,
      "##ulihan": 4628,
      "me": 4629,
      "##ajikan": 4630,
      "gag": 4631,
      "seter": 4632,
      "##yakan": 4633,
      "##geris": 4634,
      "Lembaga": 4635,
      "kal": 4636,
      "pinjaman": 4637,
      "Loader": 4638,
      "##unjuk": 4639,
      "jugak": 4640,
      "karat": 4641,
      "bola": 4642,
      "memilih": 4643,
      "##iah": 4644,
      "pengeluar": 4645,
      "Wik": 4646,
      "disi": 4647,
      "faktor": 4648,
      "##jak": 4649,
      "Dua": 4650,
      "kedudukan": 4651,
      "bar": 4652,
      "stud": 4653,
      "sekiranya": 4654,
      "pener": 4655,
      "##GA": 4656,
      "bertanggungjawab": 4657,
      "##elaskan": 4658,
      "##eria": 4659,
      "syarat": 4660,
      "Ya": 4661,
      "##alin": 4662,
      "##sian": 4663,
      "kejadian": 4664,
      "Tetapi": 4665,
      "##utup": 4666,
      "##ober": 4667,
      "##row": 4668,
      "##UA": 4669,
      "inter": 4670,
      "bunga": 4671,
      "SP": 4672,
      "pegawai": 4673,
      "PENY": 4674,
      "##ekod": 4675,
      "##ayaan": 4676,
      "##ester": 4677,
      "Bak": 4678,
      "Kab": 4679,
      "ok": 4680,
      "##unci": 4681,
      "Vitamin": 4682,
      "Kecil": 4683,
      "terima": 4684,
      "##ugerah": 4685,
      "manakala": 4686,
      "sala": 4687,
      "##tain": 4688,
      "##faat": 4689,
      "Peri": 4690,
      "menginap": 4691,
      "Paparan": 4692,
      "kont": 4693,
      "##ALAN": 4694,
      "Sumber": 4695,
      "UNTUK": 4696,
      "keselamatan": 4697,
      "Ni": 4698,
      "Piagam": 4699,
      "November": 4700,
      "disediakan": 4701,
      "##gian": 4702,
      "JAWATAN": 4703,
      "guna": 4704,
      "##angkap": 4705,
      "##law": 4706,
      "##sir": 4707,
      "##engok": 4708,
      "USD": 4709,
      "60": 4710,
      "##andaran": 4711,
      "Vol": 4712,
      "Il": 4713,
      "terd": 4714,
      "darah": 4715,
      "##erv": 4716,
      "##aruh": 4717,
      "tub": 4718,
      "kewangan": 4719,
      "Te": 4720,
      "##adangan": 4721,
      "Tuhan": 4722,
      "Perancis": 4723,
      "bank": 4724,
      "##lastik": 4725,
      "Timbalan": 4726,
      "Berc": 4727,
      "dilak": 4728,
      "rela": 4729,
      "latihan": 4730,
      "sup": 4731,
      "tinggal": 4732,
      "Januari": 4733,
      "Emas": 4734,
      "lengkap": 4735,
      "seterusnya": 4736,
      "semb": 4737,
      "Re": 4738,
      "197": 4739,
      "Singapura": 4740,
      "Nak": 4741,
      "2020": 4742,
      "##enuhi": 4743,
      "##olusi": 4744,
      "45": 4745,
      "Inggeris": 4746,
      "##ilin": 4747,
      "##acaan": 4748,
      "Salam": 4749,
      "##gera": 4750,
      "##dara": 4751,
      "##enarkan": 4752,
      "##asta": 4753,
      "##mail": 4754,
      "tenaga": 4755,
      "Pengh": 4756,
      "##sur": 4757,
      "##arut": 4758,
      "tekanan": 4759,
      "##ki": 4760,
      "Soalan": 4761,
      "Log": 4762,
      "EMAS": 4763,
      "##indak": 4764,
      "Bas": 4765,
      "##24": 4766,
      "melaksanakan": 4767,
      "##unyi": 4768,
      "trans": 4769,
      "Lim": 4770,
      "##AJARAN": 4771,
      "##tn": 4772,
      "Sejarah": 4773,
      "segi": 4774,
      "membeli": 4775,
      "Jum": 4776,
      "kadar": 4777,
      "Flange": 4778,
      "All": 4779,
      "##60": 4780,
      "Ger": 4781,
      "##anta": 4782,
      "##AKAN": 4783,
      "##fa": 4784,
      "hab": 4785,
      "MENG": 4786,
      "##akai": 4787,
      "korang": 4788,
      "Aktiviti": 4789,
      "Waktu": 4790,
      "Home": 4791,
      "Perl": 4792,
      "Masalah": 4793,
      "menang": 4794,
      "PERINGKAT": 4795,
      "##sid": 4796,
      "Pakatan": 4797,
      "telefon": 4798,
      "##gerak": 4799,
      "Perc": 4800,
      "hadapan": 4801,
      "##usah": 4802,
      "Do": 4803,
      "##sud": 4804,
      "Penyakit": 4805,
      "##ental": 4806,
      "PAN": 4807,
      "##ahwinan": 4808,
      "##eperiksaan": 4809,
      "##asaran": 4810,
      "##ombor": 4811,
      "##anggil": 4812,
      "##dalam": 4813,
      "budaya": 4814,
      "Lama": 4815,
      "Gun": 4816,
      "adik": 4817,
      "lakukan": 4818,
      "pengurusan": 4819,
      "##LAH": 4820,
      "##esign": 4821,
      "Sebab": 4822,
      "putih": 4823,
      "##21": 4824,
      "Secara": 4825,
      "##ubis": 4826,
      "##ugh": 4827,
      "perl": 4828,
      "Stat": 4829,
      "##ustr": 4830,
      "##urang": 4831,
      "khusus": 4832,
      "rawatan": 4833,
      "terlibat": 4834,
      "##ahaman": 4835,
      "##bon": 4836,
      "teg": 4837,
      "Ekonomi": 4838,
      "##99": 4839,
      "##ADA": 4840,
      "2008": 4841,
      "##imiza": 4842,
      "Qamal": 4843,
      "##Eimiza": 4844,
      "hitsEimiza": 4845,
      "##etua": 4846,
      "hilang": 4847,
      "Pal": 4848,
      "##ongk": 4849,
      "Anwar": 4850,
      "Kosong": 4851,
      "Pelajar": 4852,
      "no": 4853,
      "##aduan": 4854,
      "Ark": 4855,
      "Islamic": 4856,
      "##rik": 4857,
      "Keupayaan": 4858,
      "##elar": 4859,
      "Pos": 4860,
      "navig": 4861,
      "hitsMohd": 4862,
      "##andang": 4863,
      "terutamanya": 4864,
      "##able": 4865,
      "jenama": 4866,
      "bakul": 4867,
      "##IHAN": 4868,
      "##YA": 4869,
      "##inat": 4870,
      "Pakaian": 4871,
      "unit": 4872,
      "##ren": 4873,
      "##ern": 4874,
      "##emer": 4875,
      "kotak": 4876,
      "##URU": 4877,
      "##orporat": 4878,
      "pelaburan": 4879,
      "TEKN": 4880,
      "Industri": 4881,
      "##aliknya": 4882,
      "##uci": 4883,
      "Mad": 4884,
      "##dit": 4885,
      "KEJ": 4886,
      "alat": 4887,
      "##atat": 4888,
      "Kategori": 4889,
      "##taz": 4890,
      "##mosi": 4891,
      "dijalankan": 4892,
      "##ollow": 4893,
      "##orld": 4894,
      "Web": 4895,
      "##ukur": 4896,
      "##ium": 4897,
      "##ulum": 4898,
      "Kela": 4899,
      "menerusi": 4900,
      "konsep": 4901,
      "##wal": 4902,
      "Sah": 4903,
      "##ipedia": 4904,
      "kad": 4905,
      "##ey": 4906,
      "api": 4907,
      "wujud": 4908,
      "##tab": 4909,
      "##anjung": 4910,
      "eng": 4911,
      "##URAN": 4912,
      "Pesanan": 4913,
      "##eluaran": 4914,
      "##ther": 4915,
      "akhirnya": 4916,
      "Kon": 4917,
      "Bek": 4918,
      "his": 4919,
      "##etur": 4920,
      "Baju": 4921,
      "talian": 4922,
      "Laporan": 4923,
      "sunting": 4924,
      "##itkan": 4925,
      "Seg": 4926,
      "##nes": 4927,
      "li": 4928,
      "peranan": 4929,
      "##za": 4930,
      "SUHAI": 4931,
      "##ENGK": 4932,
      "petang": 4933,
      "tidur": 4934,
      "Kek": 4935,
      "app": 4936,
      "Tengah": 4937,
      "##jam": 4938,
      "Sementara": 4939,
      "##ampaikan": 4940,
      "Malay": 4941,
      "Fat": 4942,
      "Wikipedia": 4943,
      "##bi": 4944,
      "sukar": 4945,
      "KUALA": 4946,
      "hitam": 4947,
      "##opy": 4948,
      "##arm": 4949,
      "Akhir": 4950,
      "To": 4951,
      "ambil": 4952,
      "dilaksanakan": 4953,
      "##sion": 4954,
      "duduk": 4955,
      "post": 4956,
      "AR": 4957,
      "##utnya": 4958,
      "milik": 4959,
      "Jaya": 4960,
      "Jadual": 4961,
      "ST": 4962,
      "Hanya": 4963,
      "bayi": 4964,
      "##jar": 4965,
      "##oth": 4966,
      "##ITI": 4967,
      "online": 4968,
      "Pautan": 4969,
      "tepat": 4970,
      "##vis": 4971,
      "Setiap": 4972,
      "IC": 4973,
      "pasaran": 4974,
      "kualiti": 4975,
      "go": 4976,
      "kepala": 4977,
      "II": 4978,
      "Mits": 4979,
      "pos": 4980,
      "##aib": 4981,
      "09": 4982,
      "Ibn": 4983,
      "##ven": 4984,
      "Seorang": 4985,
      "##ilaian": 4986,
      "terpaksa": 4987,
      "Lab": 4988,
      "##anji": 4989,
      "##ikirkan": 4990,
      "Baca": 4991,
      "##ulakan": 4992,
      "##ldoz": 4993,
      "musim": 4994,
      "##ulasi": 4995,
      "tugas": 4996,
      "Okt": 4997,
      "##ubishi": 4998,
      "permohonan": 4999,
      "##anyaan": 5000,
      "##ph": 5001,
      "##abaran": 5002,
      "GURU": 5003,
      "Qur": 5004,
      "perkembangan": 5005,
      "Bulldoz": 5006,
      "Mitsubishi": 5007,
      "Ubat": 5008,
      "memahami": 5009,
      "kedai": 5010,
      "membolehkan": 5011,
      "karena": 5012,
      "ketiga": 5013,
      "##edar": 5014,
      "kemas": 5015,
      "##ull": 5016,
      "putus": 5017,
      "##formasi": 5018,
      "Bri": 5019,
      "##atuh": 5020,
      "Hus": 5021,
      "elektr": 5022,
      "##etengah": 5023,
      "Rasmi": 5024,
      "Blogger": 5025,
      "respon": 5026,
      "Khal": 5027,
      "Kisah": 5028,
      "##itter": 5029,
      "##way": 5030,
      "Perlu": 5031,
      "##ategi": 5032,
      "Esc": 5033,
      "##ekalkan": 5034,
      "ref": 5035,
      "May": 5036,
      "nampak": 5037,
      "operasi": 5038,
      "Dapat": 5039,
      "sepen": 5040,
      "##tive": 5041,
      "##elesaikan": 5042,
      "sifat": 5043,
      "ulasan": 5044,
      "##porkan": 5045,
      "lif": 5046,
      "##ult": 5047,
      "do": 5048,
      "isi": 5049,
      "perkataan": 5050,
      "##hbar": 5051,
      "##idah": 5052,
      "##fy": 5053,
      "Pieces": 5054,
      "##22": 5055,
      "##ertai": 5056,
      "SEB": 5057,
      "merah": 5058,
      "kursus": 5059,
      "diadakan": 5060,
      "perhatian": 5061,
      "##lama": 5062,
      "Arkib": 5063,
      "Piece": 5064,
      "Kap": 5065,
      "Aman": 5066,
      "##incangan": 5067,
      "percuma": 5068,
      "Tok": 5069,
      "KEP": 5070,
      "##umkan": 5071,
      "##app": 5072,
      "##ikuti": 5073,
      "ro": 5074,
      "meminta": 5075,
      "kematian": 5076,
      "Ham": 5077,
      "##angani": 5078,
      "##esu": 5079,
      "##EMP": 5080,
      "Ismail": 5081,
      "ruang": 5082,
      "##asis": 5083,
      "Contoh": 5084,
      "diambil": 5085,
      "##roup": 5086,
      "Tungsten": 5087,
      "Perniagaan": 5088,
      "segera": 5089,
      "BENGK": 5090,
      "##illa": 5091,
      "ingat": 5092,
      "##asakan": 5093,
      "dila": 5094,
      "Kawasan": 5095,
      "menjalankan": 5096,
      "Siti": 5097,
      "##antau": 5098,
      "##irik": 5099,
      "sambil": 5100,
      "##oga": 5101,
      "Atas": 5102,
      "enjin": 5103,
      "siapa": 5104,
      "sedia": 5105,
      "lokasi": 5106,
      "terdiri": 5107,
      "ut": 5108,
      "##spot": 5109,
      "Terbaru": 5110,
      "Berkaitan": 5111,
      "bat": 5112,
      "##intang": 5113,
      "##ruari": 5114,
      "##aq": 5115,
      "sikap": 5116,
      "tarikh": 5117,
      "diperlukan": 5118,
      "masjid": 5119,
      "##eturn": 5120,
      "tengok": 5121,
      "##endali": 5122,
      "seri": 5123,
      "menteri": 5124,
      "nik": 5125,
      "Rawatan": 5126,
      "pendapatan": 5127,
      "Melalui": 5128,
      "##aiwan": 5129,
      "kepentingan": 5130,
      "Pekerja": 5131,
      "aplikasi": 5132,
      "##ancongan": 5133,
      "mengetahui": 5134,
      "berhubung": 5135,
      "##untut": 5136,
      "##ihatan": 5137,
      "kenderaan": 5138,
      "Bo": 5139,
      "Imam": 5140,
      "percaya": 5141,
      "BENGKEL": 5142,
      "balas": 5143,
      "Daripada": 5144,
      "ny": 5145,
      "pautan": 5146,
      "Darul": 5147,
      "Bantuan": 5148,
      "Julai": 5149,
      "bahwa": 5150,
      "Rahsia": 5151,
      "Filem": 5152,
      "kebanyakan": 5153,
      "##jau": 5154,
      "##illah": 5155,
      "PERAK": 5156,
      "Col": 5157,
      "pul": 5158,
      "wak": 5159,
      "Band": 5160,
      "##reat": 5161,
      "Produc": 5162,
      "Kini": 5163,
      "##INGAN": 5164,
      "##AKLUM": 5165,
      "##so": 5166,
      "##jil": 5167,
      "##ress": 5168,
      "maklum": 5169,
      "ujian": 5170,
      "Isu": 5171,
      "Kal": 5172,
      "gagal": 5173,
      "komen": 5174,
      "top": 5175,
      "##emahan": 5176,
      "##ny": 5177,
      "##agen": 5178,
      "rambut": 5179,
      "ubat": 5180,
      "seni": 5181,
      "33": 5182,
      "terutama": 5183,
      "Luar": 5184,
      "##amadhan": 5185,
      "universiti": 5186,
      "##aksud": 5187,
      "##ize": 5188,
      "##tusan": 5189,
      "cantik": 5190,
      "##tera": 5191,
      "Bulldozer": 5192,
      "Pertu": 5193,
      "##MI": 5194,
      "saudara": 5195,
      "Valve": 5196,
      "##led": 5197,
      "return": 5198,
      "perasaan": 5199,
      "AG": 5200,
      "Kam": 5201,
      "##evelop": 5202,
      "sta": 5203,
      "Khas": 5204,
      "##arch": 5205,
      "Muat": 5206,
      "mengajar": 5207,
      "demi": 5208,
      "##jayaan": 5209,
      "Seh": 5210,
      "##ATI": 5211,
      "minit": 5212,
      "hadir": 5213,
      "blogspot": 5214,
      "##ments": 5215,
      "##tah": 5216,
      "##kand": 5217,
      "Sebut": 5218,
      "sana": 5219,
      "Mark": 5220,
      "berusia": 5221,
      "##su": 5222,
      "##LAM": 5223,
      "perang": 5224,
      "##oman": 5225,
      "mengandungi": 5226,
      "tok": 5227,
      "Dem": 5228,
      "malah": 5229,
      "Maka": 5230,
      "Beb": 5231,
      "##oleksi": 5232,
      "##onton": 5233,
      "##awarkan": 5234,
      "##urangan": 5235,
      "##ings": 5236,
      "artikel": 5237,
      "all": 5238,
      "gaya": 5239,
      "##empatan": 5240,
      "BAGI": 5241,
      "Sl": 5242,
      "##etw": 5243,
      "##kenalkan": 5244,
      "KOK": 5245,
      "menyokong": 5246,
      "##ley": 5247,
      "##emen": 5248,
      "##insip": 5249,
      "meningkat": 5250,
      "##olog": 5251,
      "Februari": 5252,
      "##KUASA": 5253,
      "##uali": 5254,
      "##40": 5255,
      "Tanpa": 5256,
      "tentera": 5257,
      "##DI": 5258,
      "lahir": 5259,
      "##ANGG": 5260,
      "Mari": 5261,
      "war": 5262,
      "dar": 5263,
      "Id": 5264,
      "diam": 5265,
      "siap": 5266,
      "pulak": 5267,
      "36": 5268,
      "sebag": 5269,
      "Peta": 5270,
      "their": 5271,
      "rasmi": 5272,
      "keg": 5273,
      "Kewangan": 5274,
      "Pengerusi": 5275,
      "Terdapat": 5276,
      "Wilayah": 5277,
      "Perkara": 5278,
      "hukum": 5279,
      "gel": 5280,
      "pakai": 5281,
      "Hidup": 5282,
      "pasangan": 5283,
      "Popular": 5284,
      "##ecah": 5285,
      "samb": 5286,
      "##rasi": 5287,
      "##luk": 5288,
      "##ediaan": 5289,
      "Rahman": 5290,
      "Jam": 5291,
      "lo": 5292,
      "BAHASA": 5293,
      "tud": 5294,
      "navigation": 5295,
      "Oktober": 5296,
      "sw": 5297,
      "Internet": 5298,
      "##etuju": 5299,
      "laluan": 5300,
      "Berb": 5301,
      "##akarta": 5302,
      "##eel": 5303,
      "##adanya": 5304,
      "over": 5305,
      "pendapat": 5306,
      "##aus": 5307,
      "Akta": 5308,
      "##cayai": 5309,
      "kehilangan": 5310,
      "##atar": 5311,
      "##operasi": 5312,
      "##ype": 5313,
      "gi": 5314,
      "##oller": 5315,
      "##lobal": 5316,
      "##ash": 5317,
      "sebagainya": 5318,
      "##ujudkan": 5319,
      "Tem": 5320,
      "##indahan": 5321,
      "catatan": 5322,
      "panduan": 5323,
      "model": 5324,
      "tun": 5325,
      "wat": 5326,
      "Klik": 5327,
      "##ajet": 5328,
      "Cer": 5329,
      "pelajaran": 5330,
      "Sed": 5331,
      "Antarabangsa": 5332,
      "pekerjaan": 5333,
      "##EJAB": 5334,
      "##INI": 5335,
      "antarabangsa": 5336,
      "Pertama": 5337,
      "Setelah": 5338,
      "Bh": 5339,
      "##ANA": 5340,
      "kebangsaan": 5341,
      "##cik": 5342,
      "##ukul": 5343,
      "intern": 5344,
      "SM": 5345,
      "Escalator": 5346,
      "##25": 5347,
      "alih": 5348,
      "##16": 5349,
      "sedar": 5350,
      "##ikulum": 5351,
      "##enaran": 5352,
      "##hh": 5353,
      "nasi": 5354,
      "##yang": 5355,
      "##TAND": 5356,
      "pakaian": 5357,
      "gr": 5358,
      "##lawanan": 5359,
      "membentuk": 5360,
      "##daftaran": 5361,
      "This": 5362,
      "Latihan": 5363,
      "berter": 5364,
      "pengg": 5365,
      "##iter": 5366,
      "Trans": 5367,
      "##ducation": 5368,
      "soal": 5369,
      "##etakkan": 5370,
      "Umum": 5371,
      "##umpa": 5372,
      "##tanah": 5373,
      "##omatik": 5374,
      "terjadi": 5375,
      "##rivasi": 5376,
      "AZ": 5377,
      "Ip": 5378,
      "TAN": 5379,
      "kekal": 5380,
      "##abah": 5381,
      "Bola": 5382,
      "##ANTAN": 5383,
      "DALAM": 5384,
      "##emuka": 5385,
      "What": 5386,
      "kerusi": 5387,
      "Tambah": 5388,
      "meter": 5389,
      "salafy": 5390,
      "Jawatankuasa": 5391,
      "ON": 5392,
      "Mon": 5393,
      "Setia": 5394,
      "Katanya": 5395,
      "Tarikh": 5396,
      "Kelu": 5397,
      "##lor": 5398,
      "my": 5399,
      "##awang": 5400,
      "cari": 5401,
      "Terma": 5402,
      "berjalan": 5403,
      "kerjasama": 5404,
      "##hana": 5405,
      "dianggap": 5406,
      "08": 5407,
      "mengeluarkan": 5408,
      "##LIN": 5409,
      "Kr": 5410,
      "Utara": 5411,
      "Lain": 5412,
      "khususnya": 5413,
      "##etik": 5414,
      "##wagen": 5415,
      "pap": 5416,
      "##indungan": 5417,
      "Volks": 5418,
      "##brid": 5419,
      "mengaku": 5420,
      "mengurangkan": 5421,
      "JAWATANKUASA": 5422,
      "terbabit": 5423,
      "##ism": 5424,
      "##embang": 5425,
      "tubuh": 5426,
      "jabatan": 5427,
      "Volkswagen": 5428,
      "pop": 5429,
      "Muk": 5430,
      "##mun": 5431,
      "hadiah": 5432,
      "tanya": 5433,
      "terbuka": 5434,
      "Dim": 5435,
      "##alsu": 5436,
      "##umbangan": 5437,
      "benda": 5438,
      "mesin": 5439,
      "Dik": 5440,
      "memenuhi": 5441,
      "Pengguna": 5442,
      "##sh": 5443,
      "bertem": 5444,
      "MAKLUM": 5445,
      "##let": 5446,
      "##alal": 5447,
      "##uster": 5448,
      "##ayaran": 5449,
      "##akitangan": 5450,
      "##vices": 5451,
      "er": 5452,
      "##eld": 5453,
      "##ukakan": 5454,
      "##inggit": 5455,
      "ianya": 5456,
      "beg": 5457,
      "##ibu": 5458,
      "##eran": 5459,
      "##ely": 5460,
      "Mengh": 5461,
      "##ace": 5462,
      "37": 5463,
      "##akwah": 5464,
      "seramai": 5465,
      "Surat": 5466,
      "##isk": 5467,
      "##emak": 5468,
      "mengk": 5469,
      "Pengajian": 5470,
      "##oalan": 5471,
      "Penerangan": 5472,
      "pertu": 5473,
      "diterima": 5474,
      "Kenapa": 5475,
      "##esional": 5476,
      "menurut": 5477,
      "Sc": 5478,
      "##jadikan": 5479,
      "##utiran": 5480,
      "kapal": 5481,
      "##inkan": 5482,
      "##amakan": 5483,
      "kategori": 5484,
      "kri": 5485,
      "say": 5486,
      "##uld": 5487,
      "naf": 5488,
      "menjej": 5489,
      "##ten": 5490,
      "##uji": 5491,
      "Sekiranya": 5492,
      "##OHD": 5493,
      "dirinya": 5494,
      "##jektif": 5495,
      "Class": 5496,
      "Kedua": 5497,
      "positif": 5498,
      "tau": 5499,
      "Pelan": 5500,
      "##ber": 5501,
      "membina": 5502,
      "Roller": 5503,
      "Isra": 5504,
      "##tian": 5505,
      "Maj": 5506,
      "##uam": 5507,
      "senang": 5508,
      "##AMAT": 5509,
      "mendapati": 5510,
      "ala": 5511,
      "penulis": 5512,
      "Menarik": 5513,
      "Siapa": 5514,
      "International": 5515,
      "Barang": 5516,
      "##EC": 5517,
      "batu": 5518,
      "##impunan": 5519,
      "Pintu": 5520,
      "perbu": 5521,
      "tradisi": 5522,
      "Mungkin": 5523,
      "berubah": 5524,
      "##ungguhnya": 5525,
      "Fak": 5526,
      "Sembilan": 5527,
      "##PA": 5528,
      "ISLAM": 5529,
      "Hybrid": 5530,
      "Langk": 5531,
      "##HID": 5532,
      "DUN": 5533,
      "KELANTAN": 5534,
      "Pakej": 5535,
      "remaja": 5536,
      "##sel": 5537,
      "kayu": 5538,
      "Utusan": 5539,
      "sedi": 5540,
      "##aiki": 5541,
      "##ony": 5542,
      "##imia": 5543,
      "have": 5544,
      "biasanya": 5545,
      "menghar": 5546,
      "##udak": 5547,
      "##ezaan": 5548,
      "KEM": 5549,
      "59": 5550,
      "daya": 5551,
      "content": 5552,
      "which": 5553,
      "##tual": 5554,
      "pengan": 5555,
      "05": 5556,
      "##ona": 5557,
      "##ba": 5558,
      "Ramadhan": 5559,
      "##mati": 5560,
      "##ire": 5561,
      "sib": 5562,
      "tawaran": 5563,
      "Hyun": 5564,
      "##enalan": 5565,
      "KOM": 5566,
      "ben": 5567,
      "Ur": 5568,
      "##odoh": 5569,
      "Jakarta": 5570,
      "Roslan": 5571,
      "pur": 5572,
      "##tal": 5573,
      "##ras": 5574,
      "##unjung": 5575,
      "form": 5576,
      "##OHANAN": 5577,
      "KEJOHANAN": 5578,
      "Susu": 5579,
      "##day": 5580,
      "##edahan": 5581,
      "Tur": 5582,
      "##eki": 5583,
      "simp": 5584,
      "Twitter": 5585,
      "Cinta": 5586,
      "setahun": 5587,
      "Kej": 5588,
      "##ale": 5589,
      "##ahanan": 5590,
      "prot": 5591,
      "Sar": 5592,
      "berkesan": 5593,
      "##alisis": 5594,
      "Minyak": 5595,
      "email": 5596,
      "widget": 5597,
      "gadis": 5598,
      "dew": 5599,
      "bangunan": 5600,
      "can": 5601,
      "Berd": 5602,
      "55": 5603,
      "berharap": 5604,
      "pasal": 5605,
      "faham": 5606,
      "rama": 5607,
      "Abd": 5608,
      "##oid": 5609,
      "Keputusan": 5610,
      "##ese": 5611,
      "Wah": 5612,
      "Hyundai": 5613,
      "ata": 5614,
      "takut": 5615,
      "Jom": 5616,
      "Razak": 5617,
      "kesi": 5618,
      "##ool": 5619,
      "sektor": 5620,
      "##eth": 5621,
      "dita": 5622,
      "ikut": 5623,
      "bayaran": 5624,
      "United": 5625,
      "##empen": 5626,
      "sc": 5627,
      "##hati": 5628,
      "kawalan": 5629,
      "institusi": 5630,
      "##uni": 5631,
      "sepenuhnya": 5632,
      "Austr": 5633,
      "membuka": 5634,
      "##EO": 5635,
      "Edi": 5636,
      "39": 5637,
      "##cur": 5638,
      "##ice": 5639,
      "##ahawan": 5640,
      "hendaklah": 5641,
      "pentadbiran": 5642,
      "##otong": 5643,
      "##estinasi": 5644,
      "sihat": 5645,
      "generasi": 5646,
      "kak": 5647,
      "##ungguh": 5648,
      "##lace": 5649,
      "47": 5650,
      "modal": 5651,
      "Che": 5652,
      "##uncul": 5653,
      "##yyah": 5654,
      "##emas": 5655,
      "Para": 5656,
      "harta": 5657,
      "Copy": 5658,
      "jar": 5659,
      "berasal": 5660,
      "fir": 5661,
      "##rama": 5662,
      "sayang": 5663,
      "fi": 5664,
      "##angunkan": 5665,
      "bumi": 5666,
      "##fit": 5667,
      "Fer": 5668,
      "##AMB": 5669,
      "tumb": 5670,
      "amp": 5671,
      "Inilah": 5672,
      "perp": 5673,
      "Salah": 5674,
      "##itaran": 5675,
      "##ign": 5676,
      "Kemahiran": 5677,
      "paip": 5678,
      "minta": 5679,
      "Nas": 5680,
      "kab": 5681,
      "##riti": 5682,
      "Kas": 5683,
      "Muda": 5684,
      "##ersihan": 5685,
      "Bur": 5686,
      "TEKNIK": 5687,
      "kadang": 5688,
      "90": 5689,
      "##arikan": 5690,
      "##elanja": 5691,
      "Jumaat": 5692,
      "Tali": 5693,
      "LUMP": 5694,
      "KOKO": 5695,
      "##AWAH": 5696,
      "##uzik": 5697,
      "##stem": 5698,
      "permainan": 5699,
      "38": 5700,
      "##jing": 5701,
      "##AZ": 5702,
      "LUMPUR": 5703,
      "48": 5704,
      "##esai": 5705,
      "##son": 5706,
      "##orea": 5707,
      "Sol": 5708,
      "##amkan": 5709,
      "##ext": 5710,
      "##rav": 5711,
      "sementara": 5712,
      "ya": 5713,
      "kemudahan": 5714,
      "Zain": 5715,
      "berw": 5716,
      "Ipoh": 5717,
      "Berikut": 5718,
      "Land": 5719,
      "menjaga": 5720,
      "inf": 5721,
      "plastik": 5722,
      "mendengar": 5723,
      "Hasil": 5724,
      "terc": 5725,
      "reka": 5726,
      "Data": 5727,
      "OT": 5728,
      "##angkang": 5729,
      "##right": 5730,
      "sahabat": 5731,
      "pemilik": 5732,
      "mengadakan": 5733,
      "##orn": 5734,
      "##ingkas": 5735,
      "##TM": 5736,
      "hotel": 5737,
      "asa": 5738,
      "##araf": 5739,
      "##IZ": 5740,
      "Mata": 5741,
      "pembinaan": 5742,
      "menawarkan": 5743,
      "##AMAN": 5744,
      "##ITIA": 5745,
      "##enangan": 5746,
      "Exp": 5747,
      "yg": 5748,
      "##ancarkan": 5749,
      "PANITIA": 5750,
      "meninggal": 5751,
      "Super": 5752,
      "##azim": 5753,
      "##yid": 5754,
      "##ongsian": 5755,
      "dap": 5756,
      "idea": 5757,
      "32": 5758,
      "Perubatan": 5759,
      "Iklan": 5760,
      "##ITA": 5761,
      "Penyelidikan": 5762,
      "tua": 5763,
      "enam": 5764,
      "Israel": 5765,
      "Info": 5766,
      "##endiri": 5767,
      "Cari": 5768,
      "dijadikan": 5769,
      "le": 5770,
      "Kad": 5771,
      "Institu": 5772,
      "pu": 5773,
      "terkenal": 5774,
      "dijual": 5775,
      "##untukan": 5776,
      "bimb": 5777,
      "##ENT": 5778,
      "##EJABAT": 5779,
      "plat": 5780,
      "exp": 5781,
      "menghadapi": 5782,
      "##ode": 5783,
      "##ukai": 5784,
      "Email": 5785,
      "peserta": 5786,
      "PEJABAT": 5787,
      "Samp": 5788,
      "KL": 5789,
      "##iness": 5790,
      "Perubahan": 5791,
      "Dip": 5792,
      "##ailand": 5793,
      "##uhu": 5794,
      "pertanyaan": 5795,
      "Rem": 5796,
      "pus": 5797,
      "Beg": 5798,
      "Rendah": 5799,
      "tanggungjawab": 5800,
      "##intaan": 5801,
      "life": 5802,
      "mo": 5803,
      "##ublik": 5804,
      "##ade": 5805,
      "##trak": 5806,
      "pejabat": 5807,
      "##asat": 5808,
      "uc": 5809,
      "##ustom": 5810,
      "Public": 5811,
      "##leb": 5812,
      "Pat": 5813,
      "##adio": 5814,
      "Mala": 5815,
      "buruk": 5816,
      "KES": 5817,
      "##umpul": 5818,
      "terg": 5819,
      "nombor": 5820,
      "pengajian": 5821,
      "##ights": 5822,
      "cuma": 5823,
      "Korporat": 5824,
      "sar": 5825,
      "Pek": 5826,
      "pelaksanaan": 5827,
      "menjelaskan": 5828,
      "menjawab": 5829,
      "SAW": 5830,
      "Zul": 5831,
      "##toran": 5832,
      "##amatan": 5833,
      "utara": 5834,
      "PERK": 5835,
      "PEG": 5836,
      "70": 5837,
      "ayam": 5838,
      "##gle": 5839,
      "##alk": 5840,
      "PRU": 5841,
      "##tiraf": 5842,
      "##ture": 5843,
      "Warga": 5844,
      "perdagangan": 5845,
      "Imp": 5846,
      "BEL": 5847,
      "Tender": 5848,
      "keter": 5849,
      "##tro": 5850,
      "##AWAI": 5851,
      "##lus": 5852,
      "didapati": 5853,
      "##ajuk": 5854,
      "beri": 5855,
      "bergantung": 5856,
      "bertindak": 5857,
      "##ted": 5858,
      "muncul": 5859,
      "##umumkan": 5860,
      "##18": 5861,
      "wajib": 5862,
      "##tiwa": 5863,
      "##earning": 5864,
      "Piala": 5865,
      "jer": 5866,
      "##ARU": 5867,
      "pokok": 5868,
      "He": 5869,
      "aktif": 5870,
      "Thailand": 5871,
      "##itas": 5872,
      "##mbuhan": 5873,
      "Anugerah": 5874,
      "##lack": 5875,
      "Daftar": 5876,
      "Eh": 5877,
      "##edaran": 5878,
      "##adat": 5879,
      "##IRAN": 5880,
      "##load": 5881,
      "sew": 5882,
      "will": 5883,
      "tuan": 5884,
      "##sk": 5885,
      "PELAJARAN": 5886,
      "##oin": 5887,
      "##ser": 5888,
      "ataupun": 5889,
      "Korea": 5890,
      "Ai": 5891,
      "##ahagi": 5892,
      "##enting": 5893,
      "##utian": 5894,
      "pulang": 5895,
      "kanan": 5896,
      "meneg": 5897,
      "MATA": 5898,
      "Doa": 5899,
      "bot": 5900,
      "43": 5901,
      "Pengangkutan": 5902,
      "##oka": 5903,
      "##indungi": 5904,
      "PENYEL": 5905,
      "utk": 5906,
      "sepat": 5907,
      "yakin": 5908,
      "menyertai": 5909,
      "SET": 5910,
      "Baik": 5911,
      "##kal": 5912,
      "##oint": 5913,
      "Gold": 5914,
      "Gu": 5915,
      "Minggu": 5916,
      "Bercuti": 5917,
      "##akna": 5918,
      "##elamat": 5919,
      "##indah": 5920,
      "pi": 5921,
      "PERS": 5922,
      "Ustaz": 5923,
      "Haf": 5924,
      "##izikal": 5925,
      "##entian": 5926,
      "them": 5927,
      "##tori": 5928,
      "##ENGAH": 5929,
      "##ajaya": 5930,
      "sebaliknya": 5931,
      "##lex": 5932,
      "Rab": 5933,
      "merujuk": 5934,
      "lupa": 5935,
      "Sebenar": 5936,
      "diperoleh": 5937,
      "##dah": 5938,
      "##ret": 5939,
      "80": 5940,
      "##rika": 5941,
      "##ujukan": 5942,
      "BL": 5943,
      "04": 5944,
      "##janj": 5945,
      "##oo": 5946,
      "##ument": 5947,
      "##ancar": 5948,
      "##umahan": 5949,
      "##lamat": 5950,
      "kenapa": 5951,
      "def": 5952,
      "NO": 5953,
      "udara": 5954,
      "##ategory": 5955,
      "Lagi": 5956,
      "##ukaan": 5957,
      "##alakkan": 5958,
      "Manusia": 5959,
      "Mu": 5960,
      "susu": 5961,
      "##ative": 5962,
      "mulai": 5963,
      "ringgit": 5964,
      "##utkan": 5965,
      "Gol": 5966,
      "bagaimanapun": 5967,
      "kn": 5968,
      "risiko": 5969,
      "zakar": 5970,
      "Kemudian": 5971,
      "##oriti": 5972,
      "##ejala": 5973,
      "perkahwinan": 5974,
      "org": 5975,
      "jatuh": 5976,
      "PEGAWAI": 5977,
      "##isnes": 5978,
      "its": 5979,
      "##agn": 5980,
      "Foto": 5981,
      "##jana": 5982,
      "PUS": 5983,
      "disebut": 5984,
      "##obile": 5985,
      "##MA": 5986,
      "##echn": 5987,
      "Kursus": 5988,
      "##ikgu": 5989,
      "Persatuan": 5990,
      "##janjian": 5991,
      "Resepi": 5992,
      "Australia": 5993,
      "##istan": 5994,
      "##GER": 5995,
      "saiz": 5996,
      "bec": 5997,
      "##iktiraf": 5998,
      "SY": 5999,
      "44": 6000,
      "##cayaan": 6001,
      "##JA": 6002,
      "Kons": 6003,
      "ketua": 6004,
      "##onda": 6005,
      "kejayaan": 6006,
      "persek": 6007,
      "meninggalkan": 6008,
      "Masyarakat": 6009,
      "##etakan": 6010,
      "06": 6011,
      "##007": 6012,
      "##hamdul": 6013,
      "Keluarga": 6014,
      "popular": 6015,
      "berkuasa": 6016,
      "Copyright": 6017,
      "bermain": 6018,
      "##taranya": 6019,
      "Malah": 6020,
      "##12": 6021,
      "##bo": 6022,
      "But": 6023,
      "Tog": 6024,
      "berusaha": 6025,
      "##olehan": 6026,
      "##eritakan": 6027,
      "motor": 6028,
      "berkongsi": 6029,
      "sud": 6030,
      "other": 6031,
      "##AKS": 6032,
      "ji": 6033,
      "semangat": 6034,
      "2007": 6035,
      "kesalahan": 6036,
      "##akaran": 6037,
      "##iru": 6038,
      "##rajaya": 6039,
      "ditetapkan": 6040,
      "menambah": 6041,
      "aman": 6042,
      "bab": 6043,
      "bertujuan": 6044,
      "Alor": 6045,
      "High": 6046,
      "Sa": 6047,
      "palsu": 6048,
      "Bat": 6049,
      "penerb": 6050,
      "dipercayai": 6051,
      "Main": 6052,
      "Dah": 6053,
      "dikeluarkan": 6054,
      "HAR": 6055,
      "##har": 6056,
      "Iran": 6057,
      "PP": 6058,
      "senar": 6059,
      "##gai": 6060,
      "196": 6061,
      "##oni": 6062,
      "##hen": 6063,
      "##badi": 6064,
      "meletakkan": 6065,
      "Standard": 6066,
      "##til": 6067,
      "ko": 6068,
      "karya": 6069,
      "suara": 6070,
      "cadangan": 6071,
      "status": 6072,
      "Bilik": 6073,
      "Sta": 6074,
      "Cr": 6075,
      "##elian": 6076,
      "fac": 6077,
      "500": 6078,
      "Kris": 6079,
      "menyebut": 6080,
      "##ST": 6081,
      "##omen": 6082,
      "##alnya": 6083,
      "Tentang": 6084,
      "Ujian": 6085,
      "Mengenai": 6086,
      "kebenaran": 6087,
      "Akaun": 6088,
      "##opi": 6089,
      "pakar": 6090,
      "##ose": 6091,
      "##YAT": 6092,
      "sya": 6093,
      "##ademik": 6094,
      "Pe": 6095,
      "Harapan": 6096,
      "##IV": 6097,
      "saw": 6098,
      "##ajuan": 6099,
      "perbuatan": 6100,
      "sec": 6101,
      "Dib": 6102,
      "teknik": 6103,
      "##erved": 6104,
      "BAWAH": 6105,
      "##araya": 6106,
      "fungsi": 6107,
      "skip": 6108,
      "##okus": 6109,
      "##awangan": 6110,
      "agensi": 6111,
      "34": 6112,
      "tempahan": 6113,
      "gaji": 6114,
      "ditemui": 6115,
      "cukai": 6116,
      "46": 6117,
      "dilan": 6118,
      "sebelah": 6119,
      "Bab": 6120,
      "Parti": 6121,
      "UK": 6122,
      "siri": 6123,
      "##lebihan": 6124,
      "##ingat": 6125,
      "Yusof": 6126,
      "##ograf": 6127,
      "Penjagaan": 6128,
      "##usiness": 6129,
      "apakah": 6130,
      "hebat": 6131,
      "Kat": 6132,
      "pendekatan": 6133,
      "Kadar": 6134,
      "Up": 6135,
      "MAS": 6136,
      "##unggu": 6137,
      "kota": 6138,
      "Afrika": 6139,
      "##uga": 6140,
      "OTIS": 6141,
      "samping": 6142,
      "Jerman": 6143,
      "prinsip": 6144,
      "ajaran": 6145,
      "Organ": 6146,
      "tali": 6147,
      "##002": 6148,
      "##intar": 6149,
      "##uhanjaya": 6150,
      "##udin": 6151,
      "tentu": 6152,
      "Maha": 6153,
      "PERTAND": 6154,
      "Tindakan": 6155,
      "PERTANDINGAN": 6156,
      "KEB": 6157,
      "##udahkan": 6158,
      "Fil": 6159,
      "Kan": 6160,
      "Roy": 6161,
      "Ramai": 6162,
      "menyelesaikan": 6163,
      "Setiausaha": 6164,
      "sukan": 6165,
      "Putrajaya": 6166,
      "peralatan": 6167,
      "Fr": 6168,
      "sepatutnya": 6169,
      "Pertanian": 6170,
      "stat": 6171,
      "bercuti": 6172,
      "Syed": 6173,
      "##orban": 6174,
      "Zah": 6175,
      "dana": 6176,
      "##AMP": 6177,
      "Otis": 6178,
      "##emukakan": 6179,
      "##alanya": 6180,
      "pemulihan": 6181,
      "umur": 6182,
      "##antal": 6183,
      "##onik": 6184,
      "Nya": 6185,
      "sekadar": 6186,
      "Lirik": 6187,
      "##siran": 6188,
      "##omun": 6189,
      "##aunter": 6190,
      "maksud": 6191,
      "195": 6192,
      "##unit": 6193,
      "pemikiran": 6194,
      "keku": 6195,
      "id": 6196,
      "Ameri": 6197,
      "Polisi": 6198,
      "##elahirkan": 6199,
      "anti": 6200,
      "##ukup": 6201,
      "get": 6202,
      "we": 6203,
      "you": 6204,
      "Ge": 6205,
      "Isteri": 6206,
      "bukti": 6207,
      "mengelak": 6208,
      "MENENGAH": 6209,
      "##juangan": 6210,
      "##edahkan": 6211,
      "Syarat": 6212,
      "AW": 6213,
      "tump": 6214,
      "versi": 6215,
      "Ghaz": 6216,
      "isti": 6217,
      "##ble": 6218,
      "##ekaan": 6219,
      "punya": 6220,
      "prestasi": 6221,
      "bergerak": 6222,
      "##uth": 6223,
      "##uangan": 6224,
      "Laut": 6225,
      "timb": 6226,
      "organisasi": 6227,
      "##ADI": 6228,
      "jual": 6229,
      "##omunikasi": 6230,
      "Sosial": 6231,
      "Pihak": 6232,
      "KO": 6233,
      "##elanjaan": 6234,
      "malaysia": 6235,
      "Multimedia": 6236,
      "Komuniti": 6237,
      "Paling": 6238,
      "##fer": 6239,
      "Hab": 6240,
      "undi": 6241,
      "Met": 6242,
      "##syen": 6243,
      "serangan": 6244,
      "pemerintah": 6245,
      "02": 6246,
      "maaf": 6247,
      "##embagaan": 6248,
      "##tup": 6249,
      "Diper": 6250,
      "bermakna": 6251,
      "Products": 6252,
      "Fungsi": 6253,
      "##upp": 6254,
      "Atom": 6255,
      "penyelidikan": 6256,
      "GOL": 6257,
      "##cess": 6258,
      "Projek": 6259,
      "##cel": 6260,
      "##akwaan": 6261,
      "jawapan": 6262,
      "penghantaran": 6263,
      "Cipta": 6264,
      "berla": 6265,
      "Suami": 6266,
      "##ology": 6267,
      "senarai": 6268,
      "Universi": 6269,
      "Jualan": 6270,
      "sains": 6271,
      "##19": 6272,
      "Langgan": 6273,
      "dibina": 6274,
      "##cep": 6275,
      "MAH": 6276,
      "##alat": 6277,
      "##yatakan": 6278,
      "kas": 6279,
      "##umbang": 6280,
      "ditahan": 6281,
      "##evelopment": 6282,
      "br": 6283,
      "My": 6284,
      "Irine": 6285,
      "##tinya": 6286,
      "##emis": 6287,
      "emp": 6288,
      "Angk": 6289,
      "##istiwa": 6290,
      "lang": 6291,
      "Amalan": 6292,
      "Follow": 6293,
      "pakej": 6294,
      "##aparkan": 6295,
      "CO": 6296,
      "##syar": 6297,
      "##vi": 6298,
      "dibawa": 6299,
      "##awar": 6300,
      "Pelajaran": 6301,
      "Bagaimanapun": 6302,
      "puasa": 6303,
      "##PAN": 6304,
      "English": 6305,
      "##enan": 6306,
      "bermaksud": 6307,
      "##raya": 6308,
      "Ta": 6309,
      "terbesar": 6310,
      "07": 6311,
      "perubatan": 6312,
      "##olej": 6313,
      "##angkitan": 6314,
      "sin": 6315,
      "sat": 6316,
      "##kin": 6317,
      "dagangan": 6318,
      "99": 6319,
      "##HE": 6320,
      "##daya": 6321,
      "##angnya": 6322,
      "##ner": 6323,
      "ulama": 6324,
      "##indler": 6325,
      "cuti": 6326,
      "Schindler": 6327,
      "urusan": 6328,
      "mengenal": 6329,
      "Ri": 6330,
      "##elasan": 6331,
      "internet": 6332,
      "##IF": 6333,
      "##earch": 6334,
      "##atasi": 6335,
      "Ob": 6336,
      "Gi": 6337,
      "##abungan": 6338,
      "time": 6339,
      "menem": 6340,
      "##akanan": 6341,
      "##unca": 6342,
      "Seminar": 6343,
      "tunggal": 6344,
      "##roses": 6345,
      "##ical": 6346,
      "terkemuka": 6347,
      "Menc": 6348,
      "##rif": 6349,
      "##afah": 6350,
      "Hati": 6351,
      "kah": 6352,
      "link": 6353,
      "kelihatan": 6354,
      "##asiswa": 6355,
      "##adangkan": 6356,
      "##ecial": 6357,
      "##iku": 6358,
      "##osit": 6359,
      "Book": 6360,
      "Perp": 6361,
      "kekuatan": 6362,
      "harap": 6363,
      "out": 6364,
      "pesakit": 6365,
      "bersetuju": 6366,
      "doktor": 6367,
      "dijangka": 6368,
      "##lahan": 6369,
      "peraturan": 6370,
      "Bil": 6371,
      "what": 6372,
      "car": 6373,
      "strategi": 6374,
      "year": 6375,
      "Dok": 6376,
      "Pencapaian": 6377,
      "##eral": 6378,
      "Mesyuarat": 6379,
      "Sin": 6380,
      "tungsten": 6381,
      "##abitkan": 6382,
      "barat": 6383,
      "##ria": 6384,
      "TEKNIKAL": 6385,
      "menghantar": 6386,
      "Pengg": 6387,
      "##ungkinan": 6388,
      "sikit": 6389,
      "Suruhanjaya": 6390,
      "##esel": 6391,
      "Kaedah": 6392,
      "##enangi": 6393,
      "IB": 6394,
      "##wah": 6395,
      "##13": 6396,
      "##incangkan": 6397,
      "World": 6398,
      "peningkatan": 6399,
      "KUR": 6400,
      "tulisan": 6401,
      "Peralatan": 6402,
      "BOL": 6403,
      "##iburan": 6404,
      "Kelas": 6405,
      "##ii": 6406,
      "##AJAAN": 6407,
      "Terima": 6408,
      "Toggle": 6409,
      "Surah": 6410,
      "menyer": 6411,
      "##leks": 6412,
      "membayar": 6413,
      "binti": 6414,
      "sibuk": 6415,
      "Simp": 6416,
      "##ENDAH": 6417,
      "standard": 6418,
      "selesai": 6419,
      "##EW": 6420,
      "##LI": 6421,
      "menolak": 6422,
      "##amba": 6423,
      "Privasi": 6424,
      "luas": 6425,
      "##uatan": 6426,
      "##osakan": 6427,
      "mimpi": 6428,
      "Perlis": 6429,
      "kongsi": 6430,
      "pukul": 6431,
      "HARI": 6432,
      "pelarut": 6433,
      "##eritahu": 6434,
      "Seperti": 6435,
      "memulakan": 6436,
      "##usteru": 6437,
      "Menengah": 6438,
      "##cial": 6439,
      "##RA": 6440,
      "struktur": 6441,
      "BERSAMA": 6442,
      "##AIK": 6443,
      "##ited": 6444,
      "Dit": 6445,
      "Power": 6446,
      "akses": 6447,
      "bl": 6448,
      "##adilan": 6449,
      "##erd": 6450,
      "2005": 6451,
      "Terbang": 6452,
      "peruntukan": 6453,
      "Liga": 6454,
      "Moham": 6455,
      "##intahan": 6456,
      "usia": 6457,
      "but": 6458,
      "##harga": 6459,
      "haram": 6460,
      "##tana": 6461,
      "##15": 6462,
      "##erk": 6463,
      "sol": 6464,
      "layak": 6465,
      "Sport": 6466,
      "doa": 6467,
      "##ARAH": 6468,
      "Toy": 6469,
      "##jen": 6470,
      "Dicatat": 6471,
      "melahirkan": 6472,
      "susah": 6473,
      "##amin": 6474,
      "Lapangan": 6475,
      "Sebutharga": 6476,
      "sejuk": 6477,
      "##ick": 6478,
      "##sch": 6479,
      "berasaskan": 6480,
      "responden": 6481,
      "Seni": 6482,
      "##anyi": 6483,
      "##imah": 6484,
      "were": 6485,
      "perbincangan": 6486,
      "persoalan": 6487,
      "##agar": 6488,
      "klik": 6489,
      "##elesaian": 6490,
      "##utera": 6491,
      "##sed": 6492,
      "##entangan": 6493,
      "Lilin": 6494,
      "##ucing": 6495,
      "Sain": 6496,
      "##sor": 6497,
      "cipta": 6498,
      "##ould": 6499,
      "##alog": 6500,
      "menyampaikan": 6501,
      "memperoleh": 6502,
      "teach": 6503,
      "Menggunakan": 6504,
      "##aklum": 6505,
      "profesional": 6506,
      "sumbangan": 6507,
      "situasi": 6508,
      "des": 6509,
      "sesiapa": 6510,
      "Institut": 6511,
      "War": 6512,
      "Direk": 6513,
      "##kau": 6514,
      "##hamdulillah": 6515,
      "menik": 6516,
      "##tudi": 6517,
      "##urga": 6518,
      "##go": 6519,
      "multimedia": 6520,
      "Palest": 6521,
      "keras": 6522,
      "Roll": 6523,
      "Martin": 6524,
      "pingg": 6525,
      "Ilmu": 6526,
      "##be": 6527,
      "tolong": 6528,
      "punca": 6529,
      "##UTAN": 6530,
      "##43": 6531,
      "Walau": 6532,
      "Jaw": 6533,
      "Bern": 6534,
      "##ause": 6535,
      "##sy": 6536,
      "pengundi": 6537,
      "##kuasaan": 6538,
      "item": 6539,
      "##tish": 6540,
      "reg": 6541,
      "San": 6542,
      "AH": 6543,
      "##aria": 6544,
      "misteri": 6545,
      "pot": 6546,
      "raja": 6547,
      "Int": 6548,
      "Maklum": 6549,
      "berterusan": 6550,
      "dep": 6551,
      "bukanlah": 6552,
      "sedih": 6553,
      "##airan": 6554,
      "##ebihi": 6555,
      "Sau": 6556,
      "##umur": 6557,
      "one": 6558,
      "Ford": 6559,
      "borang": 6560,
      "dif": 6561,
      "seunit": 6562,
      "##raul": 6563,
      "##urat": 6564,
      "##reen": 6565,
      "bersih": 6566,
      "android": 6567,
      "##amer": 6568,
      "had": 6569,
      "##uruf": 6570,
      "##tikal": 6571,
      "Pelak": 6572,
      "##industri": 6573,
      "PK": 6574,
      "##emaah": 6575,
      "kerap": 6576,
      "komuniti": 6577,
      "mahkamah": 6578,
      "##oli": 6579,
      "Akan": 6580,
      "KERAJAAN": 6581,
      "##untungan": 6582,
      "Lat": 6583,
      "##izi": 6584,
      "##LINE": 6585,
      "habis": 6586,
      "##ike": 6587,
      "##emerlang": 6588,
      "wakil": 6589,
      "##aksikan": 6590,
      "##ulat": 6591,
      "Turun": 6592,
      "memohon": 6593,
      "##wi": 6594,
      "Ghazali": 6595,
      "pre": 6596,
      "Fin": 6597,
      "Statistik": 6598,
      "KH": 6599,
      "##esir": 6600,
      "##onstr": 6601,
      "##ampiran": 6602,
      "##26": 6603,
      "css": 6604,
      "pengeluaran": 6605,
      "Dapatkan": 6606,
      "temb": 6607,
      "bertanya": 6608,
      "##inapan": 6609,
      "harian": 6610,
      "Design": 6611,
      "acara": 6612,
      "##untry": 6613,
      "##IRI": 6614,
      "##ket": 6615,
      "Mal": 6616,
      "##irah": 6617,
      "Pergi": 6618,
      "Hotels": 6619,
      "##INGG": 6620,
      "Ayam": 6621,
      "##syarah": 6622,
      "kecuali": 6623,
      "##afian": 6624,
      "##OC": 6625,
      "##ompok": 6626,
      "Education": 6627,
      "aliran": 6628,
      "##ery": 6629,
      "audio": 6630,
      "##amalkan": 6631,
      "berlangsung": 6632,
      "angin": 6633,
      "Fre": 6634,
      "dikenakan": 6635,
      "budak": 6636,
      "Hakim": 6637,
      "marah": 6638,
      "##urna": 6639,
      "##onth": 6640,
      "terbang": 6641,
      "membabitkan": 6642,
      "dokumen": 6643,
      "Politik": 6644,
      "PUSAT": 6645,
      "##ampur": 6646,
      "##ety": 6647,
      "##afsir": 6648,
      "swasta": 6649,
      "2006": 6650,
      "Pentadbiran": 6651,
      "##endalikan": 6652,
      "Lori": 6653,
      "##ambilan": 6654,
      "##AJA": 6655,
      "##orak": 6656,
      "wajah": 6657,
      "sehari": 6658,
      "Berm": 6659,
      "Kerana": 6660,
      "TANAH": 6661,
      "Pasir": 6662,
      "Sebenarnya": 6663,
      "Wang": 6664,
      "elektrik": 6665,
      "bawa": 6666,
      "itulah": 6667,
      "##industrian": 6668,
      "Me": 6669,
      "Pemuda": 6670,
      "Din": 6671,
      "Nilai": 6672,
      "##engaruhi": 6673,
      "minat": 6674,
      "cahaya": 6675,
      "##itung": 6676,
      "melebihi": 6677,
      "ye": 6678,
      "##vin": 6679,
      "port": 6680,
      "peg": 6681,
      "##egah": 6682,
      "dibenarkan": 6683,
      "Republik": 6684,
      "TR": 6685,
      "##mal": 6686,
      "impian": 6687,
      "watak": 6688,
      "##SA": 6689,
      "##ukuman": 6690,
      "##rim": 6691,
      "Mis": 6692,
      "hospital": 6693,
      "Semula": 6694,
      "##zi": 6695,
      "Pekerjaan": 6696,
      "bayar": 6697,
      "Tanda": 6698,
      "kew": 6699,
      "##anggup": 6700,
      "##azah": 6701,
      "Peperiksaan": 6702,
      "Bayi": 6703,
      "mewujudkan": 6704,
      "berpen": 6705,
      "##icara": 6706,
      "teks": 6707,
      "hutang": 6708,
      "rata": 6709,
      "##LEE": 6710,
      "mil": 6711,
      "Pelancongan": 6712,
      "Penghantaran": 6713,
      "Mi": 6714,
      "##andangan": 6715,
      "sungai": 6716,
      "##emua": 6717,
      "unsur": 6718,
      "57": 6719,
      "##ekah": 6720,
      "berhenti": 6721,
      "rec": 6722,
      "Khidmat": 6723,
      "How": 6724,
      "##sifat": 6725,
      "bertemu": 6726,
      "jawab": 6727,
      "selesa": 6728,
      "##ouse": 6729,
      "teman": 6730,
      "Rek": 6731,
      "Ed": 6732,
      "You": 6733,
      "meneruskan": 6734,
      "##gerakan": 6735,
      "##rome": 6736,
      "1M": 6737,
      "##umuman": 6738,
      "menentukan": 6739,
      "Promosi": 6740,
      "##ealth": 6741,
      "##daan": 6742,
      "Berdasarkan": 6743,
      "BUL": 6744,
      "##anggilan": 6745,
      "##80": 6746,
      "Pemer": 6747,
      "tapak": 6748,
      "ICT": 6749,
      "##dak": 6750,
      "##In": 6751,
      "1997": 6752,
      "##ainkan": 6753,
      "jualan": 6754,
      "##untutan": 6755,
      "pulau": 6756,
      "Teknik": 6757,
      "Eur": 6758,
      "menyimpan": 6759,
      "##14": 6760,
      "##ravel": 6761,
      "Peribadi": 6762,
      "##angguan": 6763,
      "Moz": 6764,
      "##ambung": 6765,
      "Services": 6766,
      "maut": 6767,
      "##ezeki": 6768,
      "##uju": 6769,
      "His": 6770,
      "DENG": 6771,
      "Tentera": 6772,
      "inc": 6773,
      "Harian": 6774,
      "##asiat": 6775,
      "pencapaian": 6776,
      "De": 6777,
      "Bakar": 6778,
      "##amily": 6779,
      "also": 6780,
      "OR": 6781,
      "Tiga": 6782,
      "##lop": 6783,
      "Far": 6784,
      "##RM": 6785,
      "Sudah": 6786,
      "##ral": 6787,
      "British": 6788,
      "Merah": 6789,
      "alasan": 6790,
      "automatik": 6791,
      "fit": 6792,
      "##uktikan": 6793,
      "Terlalu": 6794,
      "##AYU": 6795,
      "RENDAH": 6796,
      "pemandu": 6797,
      "Operasi": 6798,
      "##kh": 6799,
      "sempat": 6800,
      "jah": 6801,
      "##23": 6802,
      "Aidil": 6803,
      "##tra": 6804,
      "menya": 6805,
      "##alsafah": 6806,
      "Komen": 6807,
      "##ces": 6808,
      "arahan": 6809,
      "Zakat": 6810,
      "komputer": 6811,
      "her": 6812,
      "Cent": 6813,
      "EN": 6814,
      "##site": 6815,
      "penulisan": 6816,
      "##AU": 6817,
      "Kit": 6818,
      "sch": 6819,
      "Nasi": 6820,
      "cabaran": 6821,
      "ME": 6822,
      "##ihkan": 6823,
      "Item": 6824,
      "##jakan": 6825,
      "Teng": 6826,
      "berta": 6827,
      "##ength": 6828,
      "Lepas": 6829,
      "perlawanan": 6830,
      "Mazda": 6831,
      "mandi": 6832,
      "kebaikan": 6833,
      "need": 6834,
      "perbezaan": 6835,
      "dek": 6836,
      "MU": 6837,
      "##IMAT": 6838,
      "##ka": 6839,
      "tokoh": 6840,
      "53": 6841,
      "duk": 6842,
      "sl": 6843,
      "pemerintahan": 6844,
      "##eligi": 6845,
      "Ay": 6846,
      "kosong": 6847,
      "berfikir": 6848,
      "INI": 6849,
      "mempert": 6850,
      "mengikuti": 6851,
      "ringkas": 6852,
      "##erahkan": 6853,
      "Vi": 6854,
      "##pir": 6855,
      "Pembekal": 6856,
      "berbagai": 6857,
      "##ering": 6858,
      "##ancong": 6859,
      "rasuah": 6860,
      "75": 6861,
      "kaya": 6862,
      "bersifat": 6863,
      "##oklat": 6864,
      "KAD": 6865,
      "Bad": 6866,
      "fak": 6867,
      "sedangkan": 6868,
      "wah": 6869,
      "##tri": 6870,
      "barangan": 6871,
      "dipilih": 6872,
      "Memang": 6873,
      "##ikutan": 6874,
      "nasihat": 6875,
      "Hu": 6876,
      "Macam": 6877,
      "Tas": 6878,
      "pembangkang": 6879,
      "gula": 6880,
      "doc": 6881,
      "##ulas": 6882,
      "more": 6883,
      "ujar": 6884,
      "##erg": 6885,
      "vir": 6886,
      "lemah": 6887,
      "teruk": 6888,
      "semata": 6889,
      "Profil": 6890,
      "##ambaran": 6891,
      "gem": 6892,
      "haiwan": 6893,
      "semuanya": 6894,
      "Barisan": 6895,
      "Pengalaman": 6896,
      "they": 6897,
      "##elengg": 6898,
      "Parts": 6899,
      "fizikal": 6900,
      "##aklumkan": 6901,
      "Ulasan": 6902,
      "terlebih": 6903,
      "hutan": 6904,
      "Tekanan": 6905,
      "kegi": 6906,
      "Permainan": 6907,
      "term": 6908,
      "##bum": 6909,
      "view": 6910,
      "jangka": 6911,
      "##dangan": 6912,
      "selu": 6913,
      "##ANGK": 6914,
      "PERC": 6915,
      "ketu": 6916,
      "diketahui": 6917,
      "muslim": 6918,
      "##tukar": 6919,
      "inov": 6920,
      "##linik": 6921,
      "BN": 6922,
      "Aplikasi": 6923,
      "sepak": 6924,
      "Toyota": 6925,
      "Sil": 6926,
      "Mesir": 6927,
      "seder": 6928,
      "moden": 6929,
      "BLOG": 6930,
      "Mana": 6931,
      "gas": 6932,
      "sidang": 6933,
      "Penafian": 6934,
      "masak": 6935,
      "##fah": 6936,
      "Iz": 6937,
      "lu": 6938,
      "menimb": 6939,
      "Terh": 6940,
      "hartanah": 6941,
      "##utuskan": 6942,
      "Justeru": 6943,
      "size": 6944,
      "manfaat": 6945,
      "##ading": 6946,
      "Keluli": 6947,
      "janji": 6948,
      "terbaru": 6949,
      "##een": 6950,
      "##ury": 6951,
      "Kulit": 6952,
      "kerosakan": 6953,
      "##ustak": 6954,
      "tujuh": 6955,
      "##usun": 6956,
      "Firef": 6957,
      "saham": 6958,
      "serius": 6959,
      "Kesan": 6960,
      "##ampus": 6961,
      "##titi": 6962,
      "off": 6963,
      "SHAH": 6964,
      "##onen": 6965,
      "##ulusan": 6966,
      "gu": 6967,
      "##NAN": 6968,
      "insan": 6969,
      "##tai": 6970,
      "sebaik": 6971,
      "##iaga": 6972,
      "inv": 6973,
      "54": 6974,
      "az": 6975,
      "abad": 6976,
      "desa": 6977,
      "##esyen": 6978,
      "besi": 6979,
      "sisi": 6980,
      "pembayaran": 6981,
      "indah": 6982,
      "matlamat": 6983,
      "kurangnya": 6984,
      "##elajari": 6985,
      "##ated": 6986,
      "##eny": 6987,
      "DENGAN": 6988,
      "King": 6989,
      "Sekarang": 6990,
      "jiwa": 6991,
      "##aten": 6992,
      "merangk": 6993,
      "EK": 6994,
      "bintang": 6995,
      "Adam": 6996,
      "PUB": 6997,
      "minum": 6998,
      "##TU": 6999,
      "Ciri": 7000,
      "COM": 7001,
      "2004": 7002,
      "##eliti": 7003,
      "Lesen": 7004,
      "Vir": 7005,
      "##ewaan": 7006,
      "new": 7007,
      "PAR": 7008,
      "didakwa": 7009,
      "##esis": 7010,
      "dilantik": 7011,
      "Audio": 7012,
      "merasa": 7013,
      "permintaan": 7014,
      "et": 7015,
      "Pengan": 7016,
      "##tional": 7017,
      "sederhana": 7018,
      "56": 7019,
      "bon": 7020,
      "##adiran": 7021,
      "Pantai": 7022,
      "Siri": 7023,
      "##anyol": 7024,
      "mulut": 7025,
      "salam": 7026,
      "Firefox": 7027,
      "Proses": 7028,
      "##ubang": 7029,
      "Said": 7030,
      "dengar": 7031,
      "menentang": 7032,
      "##AKA": 7033,
      "SUL": 7034,
      "University": 7035,
      "2001": 7036,
      "Mohamed": 7037,
      "##acara": 7038,
      "Cre": 7039,
      "Leb": 7040,
      "ph": 7041,
      "SU": 7042,
      "Malam": 7043,
      "pembungkusan": 7044,
      "##ALI": 7045,
      "Pinjaman": 7046,
      "pesawat": 7047,
      "95": 7048,
      "che": 7049,
      "##TAR": 7050,
      "dihasilkan": 7051,
      "##xy": 7052,
      "##ope": 7053,
      "Koleksi": 7054,
      "##didik": 7055,
      "##uluh": 7056,
      "##ambarkan": 7057,
      "ALAM": 7058,
      "Cerita": 7059,
      "##tm": 7060,
      "akhbar": 7061,
      "##isyen": 7062,
      "TAKL": 7063,
      "PUT": 7064,
      "Remaja": 7065,
      "Berhad": 7066,
      "##ampil": 7067,
      "Black": 7068,
      "##17": 7069,
      "##angkaian": 7070,
      "Visi": 7071,
      "Jul": 7072,
      "##ormal": 7073,
      "asli": 7074,
      "TAKLIMAT": 7075,
      "Saf": 7076,
      "angkat": 7077,
      "She": 7078,
      "wa": 7079,
      "Company": 7080,
      "##ahankan": 7081,
      "Sijil": 7082,
      "hujan": 7083,
      "halaman": 7084,
      "hujung": 7085,
      "##antang": 7086,
      "bilangan": 7087,
      "##RE": 7088,
      "##isau": 7089,
      "API": 7090,
      "Hantar": 7091,
      "global": 7092,
      "Syariah": 7093,
      "##ampuan": 7094,
      "##fitri": 7095,
      "kering": 7096,
      "##tereo": 7097,
      "mendakwa": 7098,
      "Kemaskini": 7099,
      "##UNAN": 7100,
      "learning": 7101,
      "Anti": 7102,
      "##elap": 7103,
      "kepimpinan": 7104,
      "##ORM": 7105,
      "Palestin": 7106,
      "Dig": 7107,
      "##yakinan": 7108,
      "Gala": 7109,
      "pengangkutan": 7110,
      "##tory": 7111,
      "Pekeliling": 7112,
      "##utar": 7113,
      "Asas": 7114,
      "Road": 7115,
      "timbul": 7116,
      "##ape": 7117,
      "##uruteraan": 7118,
      "##HIDM": 7119,
      "Halaman": 7120,
      "IK": 7121,
      "Pesakit": 7122,
      "##etus": 7123,
      "Of": 7124,
      "Saint": 7125,
      "berper": 7126,
      "Kuasa": 7127,
      "Posted": 7128,
      "tik": 7129,
      "##ografi": 7130,
      "best": 7131,
      "##inet": 7132,
      "perbandaran": 7133,
      "Gal": 7134,
      "##ners": 7135,
      "karbon": 7136,
      "Grand": 7137,
      "##uble": 7138,
      "##hlak": 7139,
      "sanggup": 7140,
      "mengangkat": 7141,
      "sebagaimana": 7142,
      "replace": 7143,
      "Inf": 7144,
      "know": 7145,
      "##dir": 7146,
      "Audi": 7147,
      "##ohanan": 7148,
      "Steel": 7149,
      "DAT": 7150,
      "Warna": 7151,
      "##ajak": 7152,
      "sensi": 7153,
      "##ondon": 7154,
      "##ertaan": 7155,
      "2000": 7156,
      "##sim": 7157,
      "kemalangan": 7158,
      "##andat": 7159,
      "Lazim": 7160,
      "belah": 7161,
      "##anies": 7162,
      "Bandaraya": 7163,
      "Kawalan": 7164,
      "Asli": 7165,
      "##uliah": 7166,
      "67": 7167,
      "islam": 7168,
      "##rok": 7169,
      "Kali": 7170,
      "mengekalkan": 7171,
      "Langkah": 7172,
      "hamba": 7173,
      "Berp": 7174,
      "Siasatan": 7175,
      "ONLINE": 7176,
      "Fel": 7177,
      "Glob": 7178,
      "58": 7179,
      "Wak": 7180,
      "##tant": 7181,
      "49": 7182,
      "manis": 7183,
      "App": 7184,
      "##anggu": 7185,
      "65": 7186,
      "##upaten": 7187,
      "##ound": 7188,
      "Kelab": 7189,
      "##eikh": 7190,
      "Whats": 7191,
      "Kong": 7192,
      "300": 7193,
      "kenc": 7194,
      "Hai": 7195,
      "mengubah": 7196,
      "sudut": 7197,
      "Honda": 7198,
      "hukuman": 7199,
      "MELAYU": 7200,
      "Pendaftaran": 7201,
      "Keh": 7202,
      "who": 7203,
      "ribu": 7204,
      "##raulik": 7205,
      "resolusi": 7206,
      "sebulan": 7207,
      "##ustakaan": 7208,
      "bernilai": 7209,
      "mesyuarat": 7210,
      "menjual": 7211,
      "tertinggi": 7212,
      "Hassan": 7213,
      "##CA": 7214,
      "##que": 7215,
      "hubungi": 7216,
      "berkembang": 7217,
      "Gadis": 7218,
      "1995": 7219,
      "Kongsi": 7220,
      "dewasa": 7221,
      "perjuangan": 7222,
      "##ILAN": 7223,
      "Murid": 7224,
      "Destinasi": 7225,
      "Saudi": 7226,
      "rahsia": 7227,
      "under": 7228,
      "berfungsi": 7229,
      "tambah": 7230,
      "##chi": 7231,
      "pandai": 7232,
      "sempurna": 7233,
      "SUKAN": 7234,
      "##ilangkan": 7235,
      "##emasan": 7236,
      "memudahkan": 7237,
      "Han": 7238,
      "seng": 7239,
      "##anjir": 7240,
      "##ronic": 7241,
      "##ulauan": 7242,
      "Plat": 7243,
      "PU": 7244,
      "memikirkan": 7245,
      "##erian": 7246,
      "ri": 7247,
      "pilih": 7248,
      "Americ": 7249,
      "Kualiti": 7250,
      "adakah": 7251,
      "start": 7252,
      "jenayah": 7253,
      "mengawal": 7254,
      "Manakala": 7255,
      "##AINAL": 7256,
      "##otosi": 7257,
      "konteks": 7258,
      "##bir": 7259,
      "maju": 7260,
      "Red": 7261,
      "skru": 7262,
      "Semp": 7263,
      "##MAD": 7264,
      "##ange": 7265,
      "terma": 7266,
      "pantai": 7267,
      "katakan": 7268,
      "kegiatan": 7269,
      "Bharu": 7270,
      "##jata": 7271,
      "Rom": 7272,
      "##ambang": 7273,
      "##otosikal": 7274,
      "Naz": 7275,
      "##indu": 7276,
      "dalaman": 7277,
      "##adiri": 7278,
      "fikir": 7279,
      "Cl": 7280,
      "##cord": 7281,
      "Mor": 7282,
      "Direktori": 7283,
      "##ass": 7284,
      "percutian": 7285,
      "sempena": 7286,
      "Semoga": 7287,
      "kebi": 7288,
      "Tioman": 7289,
      "##35": 7290,
      "baginda": 7291,
      "memberitahu": 7292,
      "Sepanyol": 7293,
      "##fikasi": 7294,
      "rak": 7295,
      "London": 7296,
      "ABD": 7297,
      "Rev": 7298,
      "##aih": 7299,
      "Stesen": 7300,
      "##INGKATAN": 7301,
      "jumpa": 7302,
      "##hai": 7303,
      "berapa": 7304,
      "huruf": 7305,
      "Keti": 7306,
      "POL": 7307,
      "pihaknya": 7308,
      "MOHD": 7309,
      "Roh": 7310,
      "##aras": 7311,
      "##edan": 7312,
      "Search": 7313,
      "Hukum": 7314,
      "##utif": 7315,
      "ADNAN": 7316,
      "##ormat": 7317,
      "##tivasi": 7318,
      "rapat": 7319,
      "pesanan": 7320,
      "Diri": 7321,
      "##eknikal": 7322,
      "persekitaran": 7323,
      "cur": 7324,
      "DARI": 7325,
      "iklan": 7326,
      "lancar": 7327,
      "##jazah": 7328,
      "SUHAIMI": 7329,
      "##iring": 7330,
      "##klu": 7331,
      "PH": 7332,
      "Keretapi": 7333,
      "dibuka": 7334,
      "mahupun": 7335,
      "##egahan": 7336,
      "##ulti": 7337,
      "pertanian": 7338,
      "##ganya": 7339,
      "penyelesaian": 7340,
      "uk": 7341,
      "##buk": 7342,
      "##hip": 7343,
      "##lands": 7344,
      "##gen": 7345,
      "##ugian": 7346,
      "pertumbuhan": 7347,
      "bahkan": 7348,
      "Zulk": 7349,
      "keuntungan": 7350,
      "##buhkan": 7351,
      "##usahaan": 7352,
      "bernama": 7353,
      "tumpuan": 7354,
      "menikmati": 7355,
      "Real": 7356,
      "Ayat": 7357,
      "foto": 7358,
      "##to": 7359,
      "antaranya": 7360,
      "##metik": 7361,
      "##ANC": 7362,
      "KOTA": 7363,
      "Mach": 7364,
      "Dij": 7365,
      "Bahru": 7366,
      "meluas": 7367,
      "##ekutif": 7368,
      "Gunung": 7369,
      "CAT": 7370,
      "tas": 7371,
      "##TR": 7372,
      "Keg": 7373,
      "saluran": 7374,
      "kecamatan": 7375,
      "Wat": 7376,
      "sekeliling": 7377,
      "bercakap": 7378,
      "Hitam": 7379,
      "##ubuhan": 7380,
      "##bel": 7381,
      "Ket": 7382,
      "##odi": 7383,
      "Mew": 7384,
      "SUHAIDI": 7385,
      "aset": 7386,
      "Belum": 7387,
      "Aston": 7388,
      "##uasai": 7389,
      "rev": 7390,
      "hitsAINAL": 7391,
      "Bl": 7392,
      "add": 7393,
      "##very": 7394,
      "##ABATAN": 7395,
      "anaknya": 7396,
      "##antalum": 7397,
      "##ulaan": 7398,
      "darjah": 7399,
      "berwarna": 7400,
      "KP": 7401,
      "Gajah": 7402,
      "GOLD": 7403,
      "bersalin": 7404,
      "Masih": 7405,
      "##anggar": 7406,
      "##sal": 7407,
      "Pad": 7408,
      "perlindungan": 7409,
      "##IMP": 7410,
      "kimia": 7411,
      "##engkel": 7412,
      "Je": 7413,
      "Ev": 7414,
      "pendek": 7415,
      "Ferr": 7416,
      "Beli": 7417,
      "abang": 7418,
      "Mag": 7419,
      "Gen": 7420,
      "kakitangan": 7421,
      "Sokongan": 7422,
      "rancang": 7423,
      "Lib": 7424,
      "jur": 7425,
      "Chrome": 7426,
      "Penilaian": 7427,
      "Sum": 7428,
      "##incang": 7429,
      "pembelian": 7430,
      "Selasa": 7431,
      "Ala": 7432,
      "dilaporkan": 7433,
      "comments": 7434,
      "##amis": 7435,
      "##amar": 7436,
      "##awak": 7437,
      "##LIC": 7438,
      "Bacaan": 7439,
      "##GAN": 7440,
      "bantu": 7441,
      "Penulis": 7442,
      "dosa": 7443,
      "##esuaikan": 7444,
      "valu": 7445,
      "dipanggil": 7446,
      "##date": 7447,
      "##nam": 7448,
      "tertu": 7449,
      "Penerb": 7450,
      "Mercury": 7451,
      "##ALAH": 7452,
      "entry": 7453,
      "Talian": 7454,
      "membuatkan": 7455,
      "##ahari": 7456,
      "##ebasan": 7457,
      "##UMA": 7458,
      "Cukai": 7459,
      "setu": 7460,
      "Jawa": 7461,
      "negatif": 7462,
      "194": 7463,
      "##els": 7464,
      "##siklop": 7465,
      "sampah": 7466,
      "Perbandaran": 7467,
      "##tagram": 7468,
      "ucapan": 7469,
      "ta": 7470,
      "pay": 7471,
      "##ure": 7472,
      "##uta": 7473,
      "mengapa": 7474,
      "menges": 7475,
      "Alhamdulillah": 7476,
      "##tip": 7477,
      "##utamaan": 7478,
      "Puasa": 7479,
      "##aitkan": 7480,
      "88": 7481,
      "##ategik": 7482,
      "##MAN": 7483,
      "Kak": 7484,
      "pah": 7485,
      "ALLAH": 7486,
      "mengamalkan": 7487,
      "dadah": 7488,
      "Group": 7489,
      "##odenan": 7490,
      "Bersatu": 7491,
      "Petua": 7492,
      "Faiz": 7493,
      "##ating": 7494,
      "##akili": 7495,
      "BUK": 7496,
      "##aikkan": 7497,
      "Subang": 7498,
      "sehala": 7499,
      "##inding": 7500,
      "##hab": 7501,
      "##sedur": 7502,
      "menunggu": 7503,
      "##timewa": 7504,
      "##hari": 7505,
      "##002000": 7506,
      "Beberapa": 7507,
      "##inga": 7508,
      "kepercayaan": 7509,
      "Pangk": 7510,
      "##ows": 7511,
      "Penuh": 7512,
      "##ormati": 7513,
      "inilah": 7514,
      "##ERS": 7515,
      "join": 7516,
      "tradisional": 7517,
      "Jan": 7518,
      "kiri": 7519,
      "pertandingan": 7520,
      "##vern": 7521,
      "##tml": 7522,
      "##alai": 7523,
      "because": 7524,
      "Kitab": 7525,
      "##ens": 7526,
      "tangga": 7527,
      "medi": 7528,
      "muk": 7529,
      "##umip": 7530,
      "kenal": 7531,
      "Tengku": 7532,
      "Murah": 7533,
      "rujukan": 7534,
      "##ets": 7535,
      "JABATAN": 7536,
      "Krabi": 7537,
      "pek": 7538,
      "##acu": 7539,
      "Galaxy": 7540,
      "PIN": 7541,
      "bersedia": 7542,
      "mekan": 7543,
      "##urian": 7544,
      "##ffer": 7545,
      "Rabu": 7546,
      "missch": 7547,
      "##ronicz": 7548,
      "misschronicz": 7549,
      "##round": 7550,
      "##SP": 7551,
      "Peraturan": 7552,
      "Peluang": 7553,
      "sekurang": 7554,
      "Ul": 7555,
      "just": 7556,
      "##alil": 7557,
      "teori": 7558,
      "pintar": 7559,
      "study": 7560,
      "students": 7561,
      "sejumlah": 7562,
      "bacaan": 7563,
      "##andingkan": 7564,
      "komunikasi": 7565,
      "##aring": 7566,
      "penilaian": 7567,
      "Alamat": 7568,
      "Zak": 7569,
      "kunci": 7570,
      "Borong": 7571,
      "##oreng": 7572,
      "##enz": 7573,
      "zakat": 7574,
      "##ys": 7575,
      "Masuk": 7576,
      "##andangkan": 7577,
      "SELAMAT": 7578,
      "Atau": 7579,
      "##ESI": 7580,
      "baki": 7581,
      "##omes": 7582,
      "tunggu": 7583,
      "Rusia": 7584,
      "##Sp": 7585,
      "run": 7586,
      "Aidilfitri": 7587,
      "tingkat": 7588,
      "hamil": 7589,
      "Bekas": 7590,
      "##bod": 7591,
      "ringan": 7592,
      "##ANTIKAN": 7593,
      "high": 7594,
      "dapatkan": 7595,
      "##untuk": 7596,
      "Perang": 7597,
      "##ampuran": 7598,
      "der": 7599,
      "Bang": 7600,
      "FA": 7601,
      "Peti": 7602,
      "Sesungguhnya": 7603,
      "##bitkan": 7604,
      "Setar": 7605,
      "CH": 7606,
      "kemudiannya": 7607,
      "Bent": 7608,
      "terper": 7609,
      "profil": 7610,
      "peristiwa": 7611,
      "MA": 7612,
      "info": 7613,
      "Sabtu": 7614,
      "adanya": 7615,
      "##ENA": 7616,
      "Bangunan": 7617,
      "logo": 7618,
      "##ugi": 7619,
      "##ulung": 7620,
      "Samb": 7621,
      "##endaki": 7622,
      "##pirasi": 7623,
      "Elektr": 7624,
      "Mengapa": 7625,
      "Sakit": 7626,
      "##63": 7627,
      "Ace": 7628,
      "daun": 7629,
      "daging": 7630,
      "Er": 7631,
      "Ferrari": 7632,
      "perut": 7633,
      "Dag": 7634,
      "play": 7635,
      "Door": 7636,
      "Hasan": 7637,
      "##abda": 7638,
      "Bajet": 7639,
      "Tanjung": 7640,
      "Belajar": 7641,
      "memenangi": 7642,
      "##ople": 7643,
      "##arangan": 7644,
      "Turki": 7645,
      "Off": 7646,
      "##pris": 7647,
      "##yl": 7648,
      "##oly": 7649,
      "Astro": 7650,
      "olah": 7651,
      "diperb": 7652,
      "gear": 7653,
      "sasaran": 7654,
      "lab": 7655,
      "mengak": 7656,
      "##omo": 7657,
      "peperiksaan": 7658,
      "menangani": 7659,
      "emosi": 7660,
      "##udara": 7661,
      "##mart": 7662,
      "##emaran": 7663,
      "##pis": 7664,
      "berkahwin": 7665,
      "ja": 7666,
      "Noor": 7667,
      "tinggalkan": 7668,
      "##ARIK": 7669,
      "Techn": 7670,
      "sign": 7671,
      "Begitu": 7672,
      "##rive": 7673,
      "##klusif": 7674,
      "PUBLIC": 7675,
      "menyel": 7676,
      "Thy": 7677,
      "##ledge": 7678,
      "##70": 7679,
      "Globe": 7680,
      "PAK": 7681,
      "RAK": 7682,
      "##oon": 7683,
      "Musta": 7684,
      "##olar": 7685,
      "##aranya": 7686,
      "af": 7687,
      "PT": 7688,
      "Putih": 7689,
      "Cor": 7690,
      "##pp": 7691,
      "tuntutan": 7692,
      "Juga": 7693,
      "tajuk": 7694,
      "Komunikasi": 7695,
      "##board": 7696,
      "memegang": 7697,
      "lapangan": 7698,
      "Sejak": 7699,
      "##AIAN": 7700,
      "kemungkinan": 7701,
      "##siatif": 7702,
      "pantas": 7703,
      "tudung": 7704,
      "##ematik": 7705,
      "##embangkan": 7706,
      "MUH": 7707,
      "Rights": 7708,
      "##embahan": 7709,
      "##ling": 7710,
      "##iayaan": 7711,
      "Padang": 7712,
      "sungguh": 7713,
      "halal": 7714,
      "Cap": 7715,
      "Not": 7716,
      "kesedaran": 7717,
      "Kabupaten": 7718,
      "Belanda": 7719,
      "elemen": 7720,
      "Rus": 7721,
      "##entuh": 7722,
      "Out": 7723,
      "2003": 7724,
      "Agung": 7725,
      "##llah": 7726,
      "##leksi": 7727,
      "Malaya": 7728,
      "tar": 7729,
      "TERB": 7730,
      "Rec": 7731,
      "berakhir": 7732,
      "timur": 7733,
      "##ubur": 7734,
      "Pasukan": 7735,
      "City": 7736,
      "##SAAN": 7737,
      "merangkumi": 7738,
      "Bayaran": 7739,
      "Benih": 7740,
      "##oma": 7741,
      "Puan": 7742,
      "erti": 7743,
      "eff": 7744,
      "dile": 7745,
      "Berat": 7746,
      "GR": 7747,
      "##asangan": 7748,
      "mengumumkan": 7749,
      "68": 7750,
      "jantung": 7751,
      "gemb": 7752,
      "gunakan": 7753,
      "Semakan": 7754,
      "diku": 7755,
      "tingk": 7756,
      "##ful": 7757,
      "##etwork": 7758,
      "Gigi": 7759,
      "memakai": 7760,
      "##jur": 7761,
      "##juran": 7762,
      "tangk": 7763,
      "##ejut": 7764,
      "##EF": 7765,
      "esok": 7766,
      "letak": 7767,
      "Reserved": 7768,
      "Lin": 7769,
      "##epak": 7770,
      "##iksa": 7771,
      "menilai": 7772,
      "menguasai": 7773,
      "Mozilla": 7774,
      "##even": 7775,
      "puas": 7776,
      "Enjin": 7777,
      "##GO": 7778,
      "##ATIHAN": 7779,
      "setakat": 7780,
      "##ewat": 7781,
      "platform": 7782,
      "Pul": 7783,
      "Por": 7784,
      "rezeki": 7785,
      "##epsi": 7786,
      "ros": 7787,
      "kemenangan": 7788,
      "Rolls": 7789,
      "Explor": 7790,
      "Kre": 7791,
      "Pengedar": 7792,
      "##ato": 7793,
      "Medi": 7794,
      "##esh": 7795,
      "dinyatakan": 7796,
      "SLE": 7797,
      "Say": 7798,
      "Musa": 7799,
      "TAK": 7800,
      "##kn": 7801,
      "SUK": 7802,
      "##eme": 7803,
      "SO": 7804,
      "Terk": 7805,
      "Punca": 7806,
      "##denum": 7807,
      "Park": 7808,
      "batang": 7809,
      "Diam": 7810,
      "##hu": 7811,
      "Sektor": 7812,
      "kempen": 7813,
      "768": 7814,
      "##utanan": 7815,
      "inisiatif": 7816,
      "Travel": 7817,
      "may": 7818,
      "berikutan": 7819,
      "Sama": 7820,
      "KET": 7821,
      "Rancangan": 7822,
      "Perempuan": 7823,
      "Perjalanan": 7824,
      "Cuba": 7825,
      "menggalakkan": 7826,
      "Kolej": 7827,
      "met": 7828,
      "mewakili": 7829,
      "##ingin": 7830,
      "##okrasi": 7831,
      "digital": 7832,
      "##inah": 7833,
      "##ogol": 7834,
      "iden": 7835,
      "group": 7836,
      "##yle": 7837,
      "pelakon": 7838,
      "spesi": 7839,
      "##ikro": 7840,
      "##aut": 7841,
      "##asana": 7842,
      "##elong": 7843,
      "Avis": 7844,
      "separuh": 7845,
      "CEP": 7846,
      "##TIV": 7847,
      "mengelakkan": 7848,
      "awak": 7849,
      "##11": 7850,
      "menuju": 7851,
      "##anjutnya": 7852,
      "keta": 7853,
      "##temuan": 7854,
      "Kepulauan": 7855,
      "berani": 7856,
      "sesetengah": 7857,
      "##ssen": 7858,
      "merancang": 7859,
      "##aram": 7860,
      "Mun": 7861,
      "istilah": 7862,
      "Petani": 7863,
      "##ondok": 7864,
      "Business": 7865,
      "panggilan": 7866,
      "Aduan": 7867,
      "kontrak": 7868,
      "kerjaya": 7869,
      "We": 7870,
      "memasuki": 7871,
      "Rover": 7872,
      "pembaca": 7873,
      "##ukuh": 7874,
      "##umiputera": 7875,
      "Teks": 7876,
      "tet": 7877,
      "##isian": 7878,
      "BERK": 7879,
      "gen": 7880,
      "Pakar": 7881,
      "Avisena": 7882,
      "Reka": 7883,
      "##hluk": 7884,
      "cre": 7885,
      "##impian": 7886,
      "menengah": 7887,
      "##truktur": 7888,
      "##afikan": 7889,
      "perjanjian": 7890,
      "ul": 7891,
      "##lement": 7892,
      "##lapan": 7893,
      "Bot": 7894,
      "Felda": 7895,
      "Manag": 7896,
      "rancangan": 7897,
      "##dex": 7898,
      "Tub": 7899,
      "menyaksikan": 7900,
      "pon": 7901,
      "Perkembangan": 7902,
      "##teraan": 7903,
      "##ATU": 7904,
      "##warkan": 7905,
      "##ols": 7906,
      "butiran": 7907,
      "##dium": 7908,
      "Dec": 7909,
      "##atal": 7910,
      "Pelbagai": 7911,
      "##deka": 7912,
      "##iff": 7913,
      "##diaman": 7914,
      "Pemulihan": 7915,
      "menimbulkan": 7916,
      "Pay": 7917,
      "Tahap": 7918,
      "Fit": 7919,
      "kerugian": 7920,
      "Kembali": 7921,
      "TID": 7922,
      "mewah": 7923,
      "Pasaran": 7924,
      "##ternatif": 7925,
      "Best": 7926,
      "perbelanjaan": 7927,
      "Thyssen": 7928,
      "Hutan": 7929,
      "##esaran": 7930,
      "Nota": 7931,
      "Royce": 7932,
      "##dirian": 7933,
      "Khalid": 7934,
      "##baan": 7935,
      "suasana": 7936,
      "peranti": 7937,
      "2002": 7938,
      "Lokasi": 7939,
      "##ankan": 7940,
      "bertambah": 7941,
      "##ipun": 7942,
      "lembut": 7943,
      "kelompok": 7944,
      "hijau": 7945,
      "##ebu": 7946,
      "pern": 7947,
      "menyi": 7948,
      "tol": 7949,
      "##tadbir": 7950,
      "##ancaran": 7951,
      "sebelumnya": 7952,
      "##ough": 7953,
      "RAKYAT": 7954,
      "majoriti": 7955,
      "##OGI": 7956,
      "##incin": 7957,
      "KADET": 7958,
      "bunyi": 7959,
      "gerakan": 7960,
      "bil": 7961,
      "Budaya": 7962,
      "akademik": 7963,
      "1024": 7964,
      "Pembelajaran": 7965,
      "Awang": 7966,
      "##ahulu": 7967,
      "diw": 7968,
      "##ney": 7969,
      "Your": 7970,
      "##epasan": 7971,
      "LT": 7972,
      "pelik": 7973,
      "tw": 7974,
      "Terbuka": 7975,
      "membuktikan": 7976,
      "Sai": 7977,
      "lainnya": 7978,
      "##siklopedia": 7979,
      "hadis": 7980,
      "gila": 7981,
      "Peringkat": 7982,
      "muzik": 7983,
      "kementerian": 7984,
      "menurun": 7985,
      "##unter": 7986,
      "##ownload": 7987,
      "kain": 7988,
      "##SUS": 7989,
      "##EST": 7990,
      "seminggu": 7991,
      "jaga": 7992,
      "##imat": 7993,
      "Perlembagaan": 7994,
      "Shaf": 7995,
      "ditubuhkan": 7996,
      "##endar": 7997,
      "##dom": 7998,
      "inci": 7999,
      "Versi": 8000,
      "##ume": 8001,
      "bertanding": 8002,
      "Dep": 8003,
      "##rain": 8004,
      "rekod": 8005,
      "Penolong": 8006,
      "##LEH": 8007,
      "berminat": 8008,
      "150": 8009,
      "must": 8010,
      "Custom": 8011,
      "Kenyataan": 8012,
      "##BA": 8013,
      "Ol": 8014,
      "Beri": 8015,
      "pengk": 8016,
      "public": 8017,
      "Menj": 8018,
      "##untukkan": 8019,
      "Explorer": 8020,
      "AC": 8021,
      "Mic": 8022,
      "SER": 8023,
      "Panas": 8024,
      "Sat": 8025,
      "kelebihan": 8026,
      "Syeikh": 8027,
      "mor": 8028,
      "42": 8029,
      "mendalam": 8030,
      "Saiz": 8031,
      "lilin": 8032,
      "kekurangan": 8033,
      "fokus": 8034,
      "Model": 8035,
      "##SR": 8036,
      "##kipun": 8037,
      "bukannya": 8038,
      "York": 8039,
      "##astera": 8040,
      "##ific": 8041,
      "SETIA": 8042,
      "Akhbar": 8043,
      "Penumpang": 8044,
      "##antara": 8045,
      "mengandung": 8046,
      "purata": 8047,
      "Mini": 8048,
      "KURSUS": 8049,
      "Ikan": 8050,
      "leb": 8051,
      "##ution": 8052,
      "Gelang": 8053,
      "Tahunan": 8054,
      "##uning": 8055,
      "##Nya": 8056,
      "Itali": 8057,
      "Wire": 8058,
      "about": 8059,
      "##ards": 8060,
      "instr": 8061,
      "alamat": 8062,
      "Hong": 8063,
      "promosi": 8064,
      "Pertubuhan": 8065,
      "pemilihan": 8066,
      "KEPADA": 8067,
      "dakwaan": 8068,
      "pensyarah": 8069,
      "Tuj": 8070,
      "ev": 8071,
      "Kin": 8072,
      "Keadaan": 8073,
      "##lian": 8074,
      "##nin": 8075,
      "##gg": 8076,
      "sensitif": 8077,
      "dimana": 8078,
      "sam": 8079,
      "##tnik": 8080,
      "order": 8081,
      "tulis": 8082,
      "##awei": 8083,
      "##reasi": 8084,
      "Chris": 8085,
      "memperk": 8086,
      "##AGAI": 8087,
      "col": 8088,
      "buka": 8089,
      "komponen": 8090,
      "otak": 8091,
      "qu": 8092,
      "bos": 8093,
      "taman": 8094,
      "Sepak": 8095,
      "##BI": 8096,
      "##WA": 8097,
      "put": 8098,
      "Menurutnya": 8099,
      "Rencana": 8100,
      "daftar": 8101,
      "##ebuah": 8102,
      "religi": 8103,
      "artis": 8104,
      "##ukun": 8105,
      "##afir": 8106,
      "pasar": 8107,
      "cemerlang": 8108,
      "##cean": 8109,
      "##awler": 8110,
      "##jan": 8111,
      "tip": 8112,
      "Pilih": 8113,
      "Ka": 8114,
      "laku": 8115,
      "seolah": 8116,
      "Kemb": 8117,
      "##asai": 8118,
      "##ildren": 8119,
      "SHAK": 8120,
      "result": 8121,
      "many": 8122,
      "##esuaian": 8123,
      "PENYELAR": 8124,
      "##ies": 8125,
      "Keper": 8126,
      "Langkau": 8127,
      "point": 8128,
      "##nal": 8129,
      "mengatasi": 8130,
      "jari": 8131,
      "##ros": 8132,
      "See": 8133,
      "design": 8134,
      "Huawei": 8135,
      "##ark": 8136,
      "##andakan": 8137,
      "##elayan": 8138,
      "##amadun": 8139,
      "kencing": 8140,
      "kahwin": 8141,
      "SEP": 8142,
      "Misi": 8143,
      "##adanan": 8144,
      "cita": 8145,
      "diperolehi": 8146,
      "Angg": 8147,
      "##abil": 8148,
      "Pokok": 8149,
      "RAM": 8150,
      "rel": 8151,
      "##disi": 8152,
      "Jenama": 8153,
      "biar": 8154,
      "##dian": 8155,
      "##ubaan": 8156,
      "##jad": 8157,
      "SUNG": 8158,
      "menghargai": 8159,
      "MEI": 8160,
      "MOD": 8161,
      "Sunnah": 8162,
      "melayu": 8163,
      "ditulis": 8164,
      "free": 8165,
      "menjalani": 8166,
      "menuntut": 8167,
      "kol": 8168,
      "ped": 8169,
      "PERCUMA": 8170,
      "PENYELARASAN": 8171,
      "jamb": 8172,
      "##IST": 8173,
      "##uahkan": 8174,
      "sa": 8175,
      "Pembinaan": 8176,
      "Betul": 8177,
      "##ucuk": 8178,
      "dihantar": 8179,
      "Ocean": 8180,
      "penumpang": 8181,
      "MAN": 8182,
      "Indeks": 8183,
      "trend": 8184,
      "1999": 8185,
      "64": 8186,
      "##ederaan": 8187,
      "berhampiran": 8188,
      "Dil": 8189,
      "Wid": 8190,
      "##ayasan": 8191,
      "##NYA": 8192,
      "Ahad": 8193,
      "##uatkuasaan": 8194,
      "##box": 8195,
      "##lem": 8196,
      "suku": 8197,
      "hakikat": 8198,
      "Tu": 8199,
      "gangguan": 8200,
      "##afik": 8201,
      "Putra": 8202,
      "##alih": 8203,
      "Sihat": 8204,
      "keupayaan": 8205,
      "memperkenalkan": 8206,
      "##orth": 8207,
      "##onok": 8208,
      "##elidik": 8209,
      "KERJA": 8210,
      "dihar": 8211,
      "Bangsa": 8212,
      "Malaysian": 8213,
      "Tenaga": 8214,
      "##ahas": 8215,
      "PD": 8216,
      "Akhirnya": 8217,
      "Gear": 8218,
      "##mo": 8219,
      "Tabung": 8220,
      "##org": 8221,
      "Instagram": 8222,
      "##AIL": 8223,
      "kehadiran": 8224,
      "membunuh": 8225,
      "harapan": 8226,
      "##omba": 8227,
      "Darah": 8228,
      "mempertahankan": 8229,
      "patut": 8230,
      "Manu": 8231,
      "##EH": 8232,
      "LATIHAN": 8233,
      "semak": 8234,
      "Perhentian": 8235,
      "presiden": 8236,
      "Perumahan": 8237,
      "kepadanya": 8238,
      "PENT": 8239,
      "dimas": 8240,
      "Pergigian": 8241,
      "Pengeluaran": 8242,
      "##ransi": 8243,
      "##oln": 8244,
      "Optim": 8245,
      "##adik": 8246,
      "Pemandu": 8247,
      "##ding": 8248,
      "muh": 8249,
      "##timb": 8250,
      "##enggara": 8251,
      "esk": 8252,
      "country": 8253,
      "membangunkan": 8254,
      "berasa": 8255,
      "berbentuk": 8256,
      "##agia": 8257,
      "Top": 8258,
      "bre": 8259,
      "drama": 8260,
      "hehe": 8261,
      "Tempatan": 8262,
      "Comm": 8263,
      "Menjadi": 8264,
      "73": 8265,
      "##28": 8266,
      "Sig": 8267,
      "##azil": 8268,
      "##ayuan": 8269,
      "engkau": 8270,
      "##siaan": 8271,
      "minuman": 8272,
      "jentera": 8273,
      "##riz": 8274,
      "Brun": 8275,
      "tarikan": 8276,
      "##ecair": 8277,
      "tangg": 8278,
      "SEN": 8279,
      "Omar": 8280,
      "membenarkan": 8281,
      "requ": 8282,
      "PERT": 8283,
      "bersabda": 8284,
      "Linc": 8285,
      "Ki": 8286,
      "first": 8287,
      "##siplin": 8288,
      "Semen": 8289,
      "Ko": 8290,
      "Lah": 8291,
      "##enoid": 8292,
      "menjelang": 8293,
      "ditawarkan": 8294,
      "##edera": 8295,
      "##OW": 8296,
      "makin": 8297,
      "##rough": 8298,
      "##ME": 8299,
      "##acang": 8300,
      "Usahawan": 8301,
      "##inal": 8302,
      "penyokong": 8303,
      "Butiran": 8304,
      "gejala": 8305,
      "Auto": 8306,
      "kucing": 8307,
      "sambutan": 8308,
      "adil": 8309,
      "##uction": 8310,
      "berbuat": 8311,
      "human": 8312,
      "Berg": 8313,
      "MAKLUMAN": 8314,
      "##tempat": 8315,
      "##ANTA": 8316,
      "##arahkan": 8317,
      "Cikgu": 8318,
      "##elek": 8319,
      "##ANTU": 8320,
      "sid": 8321,
      "Agensi": 8322,
      "kil": 8323,
      "##angkit": 8324,
      "##tom": 8325,
      "63": 8326,
      "berdepan": 8327,
      "##ft": 8328,
      "roh": 8329,
      "##scrib": 8330,
      "##engaran": 8331,
      "Kaunter": 8332,
      "Lincoln": 8333,
      "Khamis": 8334,
      "TINGG": 8335,
      "BINTI": 8336,
      "menegaskan": 8337,
      "##ehat": 8338,
      "sawit": 8339,
      "mengangg": 8340,
      "cap": 8341,
      "bagus": 8342,
      "##ukaran": 8343,
      "month": 8344,
      "##ONAL": 8345,
      "TIDAK": 8346,
      "ING": 8347,
      "pelacur": 8348,
      "Kuan": 8349,
      "nikah": 8350,
      "##unkan": 8351,
      "##oles": 8352,
      "papan": 8353,
      "Perindustrian": 8354,
      "MELAKA": 8355,
      "tema": 8356,
      "##akum": 8357,
      "##AGA": 8358,
      "Terakhir": 8359,
      "Lu": 8360,
      "memainkan": 8361,
      "pengenalan": 8362,
      "##ENSI": 8363,
      "tips": 8364,
      "Membuat": 8365,
      "##orks": 8366,
      "kelab": 8367,
      "##ibir": 8368,
      "##otal": 8369,
      "98": 8370,
      "mu": 8371,
      "##appy": 8372,
      "pengunjung": 8373,
      "Naib": 8374,
      "mempengaruhi": 8375,
      "Undangan": 8376,
      "##AJAR": 8377,
      "##undangan": 8378,
      "kemampuan": 8379,
      "jarak": 8380,
      "##aunsel": 8381,
      "##nyata": 8382,
      "##entar": 8383,
      "OLEH": 8384,
      "kelak": 8385,
      "##ekap": 8386,
      "MUR": 8387,
      "day": 8388,
      "eskalator": 8389,
      "##erjasama": 8390,
      "Alih": 8391,
      "Bert": 8392,
      "ulang": 8393,
      "ensiklopedia": 8394,
      "Tour": 8395,
      "##anjurkan": 8396,
      "Tingkatan": 8397,
      "Duduk": 8398,
      "##urni": 8399,
      "Saw": 8400,
      "##ping": 8401,
      "##ufti": 8402,
      "Institusi": 8403,
      "PL": 8404,
      "##osis": 8405,
      "##AA": 8406,
      "##sw": 8407,
      "conf": 8408,
      "Ikh": 8409,
      "perak": 8410,
      "suhu": 8411,
      "##AGIAN": 8412,
      "Inter": 8413,
      "##tawan": 8414,
      "MEMB": 8415,
      "kesemua": 8416,
      "##44": 8417,
      "CARA": 8418,
      "##read": 8419,
      "##ision": 8420,
      "melainkan": 8421,
      "Jump": 8422,
      "melaporkan": 8423,
      "teruskan": 8424,
      "41": 8425,
      "pusingan": 8426,
      "Klang": 8427,
      "mohon": 8428,
      "Nurul": 8429,
      "sesebuah": 8430,
      "Rid": 8431,
      "##str": 8432,
      "semester": 8433,
      "##rupp": 8434,
      "Objektif": 8435,
      "More": 8436,
      "##onan": 8437,
      "PRO": 8438,
      "suspek": 8439,
      "gembira": 8440,
      "##munic": 8441,
      "##esanan": 8442,
      "##atangan": 8443,
      "tegas": 8444,
      "perancangan": 8445,
      "mahal": 8446,
      "Aceh": 8447,
      "niat": 8448,
      "flange": 8449,
      "selatan": 8450,
      "Sik": 8451,
      "##ampilan": 8452,
      "perkongsian": 8453,
      "Semak": 8454,
      "Amanah": 8455,
      "Bisnes": 8456,
      "Perhutanan": 8457,
      "SUR": 8458,
      "liter": 8459,
      "see": 8460,
      "##thman": 8461,
      "diminta": 8462,
      "##fahaman": 8463,
      "Berkomunikasi": 8464,
      "imej": 8465,
      "##arusnya": 8466,
      "makna": 8467,
      "Langkawi": 8468,
      "Network": 8469,
      "sedap": 8470,
      "##imbangan": 8471,
      "##angkraf": 8472,
      "##enek": 8473,
      "##NA": 8474,
      "Hafiz": 8475,
      "nas": 8476,
      "##ektif": 8477,
      "Perdagangan": 8478,
      "Iskand": 8479,
      "##UG": 8480,
      "aksi": 8481,
      "##ombongan": 8482,
      "##esahan": 8483,
      "nabi": 8484,
      "Jour": 8485,
      "emel": 8486,
      "##ulus": 8487,
      "Agong": 8488,
      "Filam": 8489,
      "##sidangan": 8490,
      "Desa": 8491,
      "##27": 8492,
      "mesra": 8493,
      "skrin": 8494,
      "Sam": 8495,
      "Shari": 8496,
      "##oket": 8497,
      "##ates": 8498,
      "##enom": 8499,
      "membalas": 8500,
      "menging": 8501,
      "##uluskan": 8502,
      "##ISI": 8503,
      "##iputi": 8504,
      "Skip": 8505,
      "kla": 8506,
      "Kedai": 8507,
      "Drive": 8508,
      "syurga": 8509,
      "portal": 8510,
      "Dap": 8511,
      "Jok": 8512,
      "Menu": 8513,
      "##ahi": 8514,
      "BOLA": 8515,
      "dara": 8516,
      "Sesuai": 8517,
      "Buah": 8518,
      "beroperasi": 8519,
      "Gaya": 8520,
      "##armasi": 8521,
      "##ANGOR": 8522,
      "##lines": 8523,
      "RES": 8524,
      "penerbangan": 8525,
      "mulia": 8526,
      "bo": 8527,
      "aduan": 8528,
      "menangis": 8529,
      "Get": 8530,
      "memutuskan": 8531,
      "BAC": 8532,
      "document": 8533,
      "Suka": 8534,
      "pengaruh": 8535,
      "kanser": 8536,
      "Hulu": 8537,
      "Pemakanan": 8538,
      "##ancer": 8539,
      "Shenz": 8540,
      "##una": 8541,
      "##sara": 8542,
      "##erdekaan": 8543,
      "##tus": 8544,
      "unik": 8545,
      "iP": 8546,
      "akal": 8547,
      "menu": 8548,
      "melindungi": 8549,
      "##erial": 8550,
      "menun": 8551,
      "Abang": 8552,
      "##endang": 8553,
      "Baginda": 8554,
      "Istana": 8555,
      "Umar": 8556,
      "miskin": 8557,
      "dire": 8558,
      "##vinsi": 8559,
      "wajar": 8560,
      "##VE": 8561,
      "##EAN": 8562,
      "Optimus": 8563,
      "Disebabkan": 8564,
      "Pus": 8565,
      "dikenal": 8566,
      "kakak": 8567,
      "Shenzhen": 8568,
      "Sula": 8569,
      "##IMB": 8570,
      "##AINS": 8571,
      "Bapa": 8572,
      "usahawan": 8573,
      "##DB": 8574,
      "UTUSAN": 8575,
      "kehendak": 8576,
      "Gate": 8577,
      "anjing": 8578,
      "Dijual": 8579,
      "##emerl": 8580,
      "##ribut": 8581,
      "yak": 8582,
      "adat": 8583,
      "else": 8584,
      "Tahu": 8585,
      "##aisal": 8586,
      "##ogram": 8587,
      "sor": 8588,
      "Isnin": 8589,
      "Bentuk": 8590,
      "berumur": 8591,
      "66": 8592,
      "kelah": 8593,
      "Diraja": 8594,
      "dakwah": 8595,
      "##edari": 8596,
      "fakta": 8597,
      "Engine": 8598,
      "Lembaran": 8599,
      "##jualan": 8600,
      "menganggap": 8601,
      "KAK": 8602,
      "motosikal": 8603,
      "SELANGOR": 8604,
      "pimpinan": 8605,
      "##rap": 8606,
      "bersi": 8607,
      "##enaihati": 8608,
      "keterangan": 8609,
      "##200": 8610,
      "Sekitar": 8611,
      "##ion": 8612,
      "Bernama": 8613,
      "##faatkan": 8614,
      "VID": 8615,
      "PET": 8616,
      "Link": 8617,
      "Habib": 8618,
      "Tawaran": 8619,
      "suam": 8620,
      "tulang": 8621,
      "Adalah": 8622,
      "##atim": 8623,
      "diperkenalkan": 8624,
      "##idin": 8625,
      "##CI": 8626,
      "menghalang": 8627,
      "Tangan": 8628,
      "getah": 8629,
      "##erba": 8630,
      "UR": 8631,
      "perintah": 8632,
      "ass": 8633,
      "##upanya": 8634,
      "Amin": 8635,
      "Tug": 8636,
      "MUHAM": 8637,
      "##ico": 8638,
      "value": 8639,
      "jadual": 8640,
      "##entikan": 8641,
      "work": 8642,
      "##jawat": 8643,
      "##caman": 8644,
      "##argaan": 8645,
      "menja": 8646,
      "url": 8647,
      "memperb": 8648,
      "Tukar": 8649,
      "peri": 8650,
      "persi": 8651,
      "bijak": 8652,
      "ARI": 8653,
      "Awal": 8654,
      "##ubat": 8655,
      "should": 8656,
      "Pelawat": 8657,
      "##itmen": 8658,
      "##otoran": 8659,
      "MAKLUMAT": 8660,
      "musuh": 8661,
      "Nadi": 8662,
      "kelemahan": 8663,
      "penginapan": 8664,
      "##iraan": 8665,
      "kot": 8666,
      "PERJ": 8667,
      "Ters": 8668,
      "abu": 8669,
      "Yayasan": 8670,
      "Tapak": 8671,
      "##formation": 8672,
      "##ustaka": 8673,
      "##embak": 8674,
      "Mulut": 8675,
      "##agalan": 8676,
      "BH": 8677,
      "##Krupp": 8678,
      "ThyssenKrupp": 8679,
      "Tip": 8680,
      "Dulu": 8681,
      "menyumbang": 8682,
      "mengesahkan": 8683,
      "website": 8684,
      "##fiz": 8685,
      "##apis": 8686,
      "mengakui": 8687,
      "permulaan": 8688,
      "##elai": 8689,
      "##ahudi": 8690,
      "been": 8691,
      "##ungkan": 8692,
      "Perkongsian": 8693,
      "##afsiran": 8694,
      "Setahun": 8695,
      "ef": 8696,
      "Drama": 8697,
      "##anas": 8698,
      "Enter": 8699,
      "77": 8700,
      "mengej": 8701,
      "roda": 8702,
      "member": 8703,
      "peniaga": 8704,
      "Truck": 8705,
      "##ihal": 8706,
      "cab": 8707,
      "jaminan": 8708,
      "CR": 8709,
      "Wal": 8710,
      "pemeriksaan": 8711,
      "termasuklah": 8712,
      "SHAKLEE": 8713,
      "##dagang": 8714,
      "##iktirafan": 8715,
      "##29": 8716,
      "UKM": 8717,
      "BAHAGIAN": 8718,
      "##lec": 8719,
      "Pelaburan": 8720,
      "##Ex": 8721,
      "##egas": 8722,
      "penjara": 8723,
      "##buh": 8724,
      "##INA": 8725,
      "##UAL": 8726,
      "##lahirkan": 8727,
      "##versi": 8728,
      "##AJAH": 8729,
      "lewat": 8730,
      "Segala": 8731,
      "mental": 8732,
      "VIDEO": 8733,
      "##tors": 8734,
      "Pernah": 8735,
      "Fakulti": 8736,
      "##iq": 8737,
      "Back": 8738,
      "research": 8739,
      "Yusuf": 8740,
      "Brunei": 8741,
      "mun": 8742,
      "Trip": 8743,
      "##zer": 8744,
      "html": 8745,
      "##ream": 8746,
      "EX": 8747,
      "Skim": 8748,
      "bangun": 8749,
      "##ampas": 8750,
      "Persi": 8751,
      "Bro": 8752,
      "97": 8753,
      "Ehwal": 8754,
      "##aly": 8755,
      "Ari": 8756,
      "Sepanjang": 8757,
      "era": 8758,
      "mesej": 8759,
      "##afaz": 8760,
      "##cs": 8761,
      "##sikologi": 8762,
      "##itec": 8763,
      "Tambahan": 8764,
      "pergerakan": 8765,
      "tumbuhan": 8766,
      "DAS": 8767,
      "##less": 8768,
      "nasib": 8769,
      "radio": 8770,
      "Sehingga": 8771,
      "Gener": 8772,
      "##ejah": 8773,
      "satunya": 8774,
      "perdana": 8775,
      "Percuma": 8776,
      "##awasan": 8777,
      "menyus": 8778,
      "refer": 8779,
      "##ye": 8780,
      "blogger": 8781,
      "meterai": 8782,
      "mimpikan": 8783,
      "kam": 8784,
      "objektif": 8785,
      "seja": 8786,
      "##ization": 8787,
      "DAR": 8788,
      "mendedahkan": 8789,
      "Crawler": 8790,
      "##kannya": 8791,
      "##imbang": 8792,
      "tuduhan": 8793,
      "##lad": 8794,
      "seluar": 8795,
      "##App": 8796,
      "dec": 8797,
      "bet": 8798,
      "##uaca": 8799,
      "tepi": 8800,
      "kelahiran": 8801,
      "AT": 8802,
      "diubah": 8803,
      "Faisal": 8804,
      "Ec": 8805,
      "menyambut": 8806,
      "Memper": 8807,
      "admin": 8808,
      "Pemodenan": 8809,
      "Hana": 8810,
      "penjelasan": 8811,
      "##jrah": 8812,
      "lemak": 8813,
      "keyakinan": 8814,
      "##ves": 8815,
      "ikh": 8816,
      "##tukaran": 8817,
      "runners": 8818,
      "bunuh": 8819,
      "##IO": 8820,
      "Tafsir": 8821,
      "length": 8822,
      "pla": 8823,
      "prak": 8824,
      "Mobile": 8825,
      "Struktur": 8826,
      "##ariti": 8827,
      "Rob": 8828,
      "Powered": 8829,
      "Dimimpi": 8830,
      "##even7": 8831,
      "runnerseven7": 8832,
      "UPSR": 8833,
      "simpan": 8834,
      "ister": 8835,
      "koleksi": 8836,
      "pengambilan": 8837,
      "there": 8838,
      "Maksud": 8839,
      "berdaftar": 8840,
      "benih": 8841,
      "Eksekutif": 8842,
      "dialami": 8843,
      "MER": 8844,
      "search": 8845,
      "etnik": 8846,
      "##imbing": 8847,
      "##EDIA": 8848,
      "Pengumuman": 8849,
      "##uncit": 8850,
      "setia": 8851,
      "Word": 8852,
      "##adbir": 8853,
      "amanah": 8854,
      "ng": 8855,
      "Mengikut": 8856,
      "##ino": 8857,
      "ARIF": 8858,
      "makhluk": 8859,
      "##rog": 8860,
      "menemui": 8861,
      "Kecantikan": 8862,
      "real": 8863,
      "SAINS": 8864,
      "membi": 8865,
      "Filip": 8866,
      "85": 8867,
      "suci": 8868,
      "sunat": 8869,
      "##uasan": 8870,
      "tuhan": 8871,
      "terang": 8872,
      "terhad": 8873,
      "##umpah": 8874,
      "##etes": 8875,
      "jarang": 8876,
      "laki": 8877,
      "Sesi": 8878,
      "nasional": 8879,
      "Sigma": 8880,
      "##intai": 8881,
      "QURAN": 8882,
      "stok": 8883,
      "Biasa": 8884,
      "ISO": 8885,
      "akhlak": 8886,
      "coklat": 8887,
      "tunai": 8888,
      "seharusnya": 8889,
      "tamat": 8890,
      "Kerjaya": 8891,
      "##etengahkan": 8892,
      "##ix": 8893,
      "SEM9": 8894,
      "##turan": 8895,
      "Perancangan": 8896,
      "##tt": 8897,
      "Panjang": 8898,
      "##flik": 8899,
      "telur": 8900,
      "##oe": 8901,
      "Kunci": 8902,
      "##esak": 8903,
      "Cawangan": 8904,
      "kurikulum": 8905,
      "menetapkan": 8906,
      "##inci": 8907,
      "minda": 8908,
      "Kakitangan": 8909,
      "1Malaysia": 8910,
      "sewaktu": 8911,
      "relau": 8912,
      "merasakan": 8913,
      "Musim": 8914,
      "pertemuan": 8915,
      "perpaduan": 8916,
      "##qh": 8917,
      "##ohan": 8918,
      "cover": 8919,
      "bersamaan": 8920,
      "gigi": 8921,
      "##enter": 8922,
      "da": 8923,
      "peminat": 8924,
      "such": 8925,
      "surah": 8926,
      "##ults": 8927,
      "ID": 8928,
      "dibawah": 8929,
      "Warisan": 8930,
      "hand": 8931,
      "##ebarkan": 8932,
      "beriman": 8933,
      "Star": 8934,
      "yakni": 8935,
      "##rigin": 8936,
      "##olat": 8937,
      "beradik": 8938,
      "##van": 8939,
      "nyata": 8940,
      "Konsep": 8941,
      "terasa": 8942,
      "Aq": 8943,
      "One": 8944,
      "index": 8945,
      "Puteri": 8946,
      "##enaraikan": 8947,
      "Journal": 8948,
      "##obil": 8949,
      "##ills": 8950,
      "##ove": 8951,
      "##uage": 8952,
      "tab": 8953,
      "great": 8954,
      "##LAN": 8955,
      "##olyb": 8956,
      "TH": 8957,
      "pelan": 8958,
      "##etween": 8959,
      "taraf": 8960,
      "##iano": 8961,
      "##ajang": 8962,
      "fil": 8963,
      "Ton": 8964,
      "knowledge": 8965,
      "Pustaka": 8966,
      "hanyalah": 8967,
      "Terhadap": 8968,
      "Kok": 8969,
      "pendaftaran": 8970,
      "Laluan": 8971,
      "berlak": 8972,
      "##mark": 8973,
      "kediaman": 8974,
      "##asiti": 8975,
      "jua": 8976,
      "God": 8977,
      "Viet": 8978,
      "##olybdenum": 8979,
      "##engahan": 8980,
      "Fuj": 8981,
      "##ayangan": 8982,
      "tiap": 8983,
      "teb": 8984,
      "##ungkus": 8985,
      "Live": 8986,
      "protot": 8987,
      "disc": 8988,
      "Adi": 8989,
      "Iskandar": 8990,
      "berdiri": 8991,
      "##gk": 8992,
      "Pa": 8993,
      "restoran": 8994,
      "land": 8995,
      "sesat": 8996,
      "##efore": 8997,
      "Hubungan": 8998,
      "##ERL": 8999,
      "penjagaan": 9000,
      "lamb": 9001,
      "kalah": 9002,
      "biji": 9003,
      "development": 9004,
      "PASUKAN": 9005,
      "gus": 9006,
      "##isma": 9007,
      "##ilat": 9008,
      "menggambarkan": 9009,
      "Korang": 9010,
      "CEO": 9011,
      "tat": 9012,
      "Perpustakaan": 9013,
      "berjumlah": 9014,
      "pengl": 9015,
      "sewa": 9016,
      "Jas": 9017,
      "your": 9018,
      "##arak": 9019,
      "##ilding": 9020,
      "RAH": 9021,
      "garis": 9022,
      "Khair": 9023,
      "Her": 9024,
      "##CH": 9025,
      "Rp": 9026,
      "Sarjana": 9027,
      "##yc": 9028,
      "seny": 9029,
      "mon": 9030,
      "fitnah": 9031,
      "##ehendaki": 9032,
      "##vice": 9033,
      "Pendaftar": 9034,
      "sidebar": 9035,
      "find": 9036,
      "##elenggaraan": 9037,
      "##ever": 9038,
      "Master": 9039,
      "Terle": 9040,
      "sesungguhnya": 9041,
      "##ucu": 9042,
      "##II": 9043,
      "##mm": 9044,
      "perusahaan": 9045,
      "##ejahteraan": 9046,
      "Raf": 9047,
      "beban": 9048,
      "memandang": 9049,
      "lori": 9050,
      "##ORT": 9051,
      "subjek": 9052,
      "mencukup": 9053,
      "Pekan": 9054,
      "SINI": 9055,
      "Pon": 9056,
      "Rekreasi": 9057,
      "##egriti": 9058,
      "tukar": 9059,
      "##indahkan": 9060,
      "dawai": 9061,
      "##gus": 9062,
      "PERM": 9063,
      "##mara": 9064,
      "Mc": 9065,
      "##lear": 9066,
      "Denaihati": 9067,
      "meliputi": 9068,
      "##ript": 9069,
      "Digital": 9070,
      "##AMAH": 9071,
      "##my": 9072,
      "normal": 9073,
      "world": 9074,
      "Hang": 9075,
      "##IMA": 9076,
      "##ora": 9077,
      "MAT": 9078,
      "##unjungi": 9079,
      "##ukang": 9080,
      "Global": 9081,
      "case": 9082,
      "##urnal": 9083,
      "##ins": 9084,
      "##ytih": 9085,
      "ki": 9086,
      "logam": 9087,
      "##awanan": 9088,
      "banjir": 9089,
      "bekerjasama": 9090,
      "ALOR": 9091,
      "##nan": 9092,
      "full": 9093,
      "bala": 9094,
      "Kepala": 9095,
      "##LER": 9096,
      "Bet": 9097,
      "Pasar": 9098,
      "##ring": 9099,
      "Cab": 9100,
      "dada": 9101,
      "MP": 9102,
      "NGO": 9103,
      "Tert": 9104,
      "Kandungan": 9105,
      "tanaman": 9106,
      "masukkan": 9107,
      "lampu": 9108,
      "Navig": 9109,
      "Jenayah": 9110,
      "Des": 9111,
      "mala": 9112,
      "Kompleks": 9113,
      "Gab": 9114,
      "vari": 9115,
      "##evisyen": 9116,
      "Peg": 9117,
      "plan": 9118,
      "setuju": 9119,
      "##OLOGI": 9120,
      "latar": 9121,
      "##aining": 9122,
      "##atusan": 9123,
      "Hamid": 9124,
      "Play": 9125,
      "bagai": 9126,
      "Press": 9127,
      "menutup": 9128,
      "##SC": 9129,
      "##ENC": 9130,
      "img": 9131,
      "83": 9132,
      "##wayat": 9133,
      "ibn": 9134,
      "dimiliki": 9135,
      "##enomena": 9136,
      "##ng": 9137,
      "membincangkan": 9138,
      "konon": 9139,
      "Seter": 9140,
      "##ekapan": 9141,
      "perlahan": 9142,
      "##ookie": 9143,
      "memat": 9144,
      "dilahirkan": 9145,
      "Category": 9146,
      "##NOOR": 9147,
      "BU": 9148,
      "##entak": 9149,
      "hitsNOOR": 9150,
      "pendirian": 9151,
      "Filipina": 9152,
      "simpanan": 9153,
      "cetak": 9154,
      "Bekalan": 9155,
      "anugerah": 9156,
      "##turunan": 9157,
      "by": 9158,
      "kredit": 9159,
      "##yik": 9160,
      "menggantikan": 9161,
      "##ages": 9162,
      "width": 9163,
      "##batan": 9164,
      "khidmat": 9165,
      "Amir": 9166,
      "dipas": 9167,
      "Menang": 9168,
      "elektronik": 9169,
      "UL": 9170,
      "berkes": 9171,
      "senjata": 9172,
      "##estim": 9173,
      "Ide": 9174,
      "Yahudi": 9175,
      "pinggang": 9176,
      "78": 9177,
      "##fik": 9178,
      "Bentley": 9179,
      "##yukur": 9180,
      "##ogel": 9181,
      "tersendiri": 9182,
      "Pu": 9183,
      "##top": 9184,
      "##takan": 9185,
      "seli": 9186,
      "1998": 9187,
      "Sets": 9188,
      "Kebanyakan": 9189,
      "##anah": 9190,
      "Gel": 9191,
      "##emput": 9192,
      "dihadapi": 9193,
      "memandangkan": 9194,
      "##65": 9195,
      "##inium": 9196,
      "##kar": 9197,
      "Muka": 9198,
      "##Ar": 9199,
      "lingk": 9200,
      "disiarkan": 9201,
      "##umpulkan": 9202,
      "Pri": 9203,
      "diikuti": 9204,
      "saman": 9205,
      "matahari": 9206,
      "ASEAN": 9207,
      "Keperluan": 9208,
      "##inisi": 9209,
      "##IMAN": 9210,
      "##annya": 9211,
      "direka": 9212,
      "Sir": 9213,
      "Ver": 9214,
      "fr": 9215,
      "##ganeg": 9216,
      "##ature": 9217,
      "Ibnu": 9218,
      "Kejuruteraan": 9219,
      "each": 9220,
      "##nis": 9221,
      "##abrik": 9222,
      "mencukupi": 9223,
      "69": 9224,
      "##aci": 9225,
      "##lap": 9226,
      "Kebajikan": 9227,
      "popul": 9228,
      "ARIFIN": 9229,
      "SULTAN": 9230,
      "sing": 9231,
      "meri": 9232,
      "UNIT": 9233,
      "Seterusnya": 9234,
      "fikirkan": 9235,
      "Pengenalan": 9236,
      "menekan": 9237,
      "##anusiaan": 9238,
      "paru": 9239,
      "##67": 9240,
      "kod": 9241,
      "hayat": 9242,
      "prep": 9243,
      "mom": 9244,
      "album": 9245,
      "bonus": 9246,
      "long": 9247,
      "melancarkan": 9248,
      "mencadangkan": 9249,
      "Rekod": 9250,
      "iz": 9251,
      "##afe": 9252,
      "Udara": 9253,
      "dikongsi": 9254,
      "ZUHAI": 9255,
      "diterbitkan": 9256,
      "lalui": 9257,
      "saling": 9258,
      "##put": 9259,
      "##ground": 9260,
      "stesen": 9261,
      "Lalu": 9262,
      "##CO": 9263,
      "51": 9264,
      "Resi": 9265,
      "Semenanjung": 9266,
      "Kau": 9267,
      "leg": 9268,
      "ZUHAIR": 9269,
      "##amping": 9270,
      "ORANG": 9271,
      "between": 9272,
      "IT": 9273,
      "sesama": 9274,
      "AZUAR": 9275,
      "istimewa": 9276,
      "##Th": 9277,
      "mestilah": 9278,
      "basi": 9279,
      "hitsMOHD": 9280,
      "Lee": 9281,
      "##val": 9282,
      "79": 9283,
      "kesilapan": 9284,
      "Terj": 9285,
      "##antah": 9286,
      "Sebuah": 9287,
      "Rasa": 9288,
      "sisa": 9289,
      "berbuka": 9290,
      "##ection": 9291,
      "##tle": 9292,
      "stabil": 9293,
      "HEB": 9294,
      "Belia": 9295,
      "Vietnam": 9296,
      "Kehidupan": 9297,
      "berpendapat": 9298,
      "Sangat": 9299,
      "Os": 9300,
      "Slot": 9301,
      "potensi": 9302,
      "##atuhan": 9303,
      "July": 9304,
      "##ody": 9305,
      "Camer": 9306,
      "malu": 9307,
      "Mewah": 9308,
      "politi": 9309,
      "fat": 9310,
      "bis": 9311,
      "Bakul": 9312,
      "AF": 9313,
      "perg": 9314,
      "ibadah": 9315,
      "KEC": 9316,
      "MIN": 9317,
      "##istr": 9318,
      "Tempoh": 9319,
      "height": 9320,
      "##ilikon": 9321,
      "##ise": 9322,
      "##ness": 9323,
      "##elamatkan": 9324,
      "##zen": 9325,
      "Fujitec": 9326,
      "lapan": 9327,
      "52": 9328,
      "pelancong": 9329,
      "Sud": 9330,
      "penubuhan": 9331,
      "ditutup": 9332,
      "Idris": 9333,
      "##etil": 9334,
      "kelayakan": 9335,
      "##rys": 9336,
      "ir": 9337,
      "##rane": 9338,
      "##tap": 9339,
      "##jamin": 9340,
      "##balas": 9341,
      "##amanan": 9342,
      "terpelihara": 9343,
      "laa": 9344,
      "mencipta": 9345,
      "Malik": 9346,
      "Blu": 9347,
      "Tantalum": 9348,
      "Kasih": 9349,
      "##endalian": 9350,
      "kemajuan": 9351,
      "Mov": 9352,
      "Editor": 9353,
      "faedah": 9354,
      "show": 9355,
      "Sendiri": 9356,
      "##ucapkan": 9357,
      "##ected": 9358,
      "##ultur": 9359,
      "dikehendaki": 9360,
      "##ene": 9361,
      "Trak": 9362,
      "##otin": 9363,
      "##sing": 9364,
      "system": 9365,
      "Kenderaan": 9366,
      "dinamakan": 9367,
      "pelancongan": 9368,
      "bertukar": 9369,
      "leh": 9370,
      "##aktif": 9371,
      "##ukuhkan": 9372,
      "Bes": 9373,
      "topik": 9374,
      "##HAD": 9375,
      "##tical": 9376,
      "##UNGAN": 9377,
      "people": 9378,
      "cedera": 9379,
      "akhirat": 9380,
      "nikmat": 9381,
      "##orkan": 9382,
      "dikemukakan": 9383,
      "lawan": 9384,
      "##orex": 9385,
      "##ency": 9386,
      "IM": 9387,
      "social": 9388,
      "informasi": 9389,
      "##UJ": 9390,
      "Hadapan": 9391,
      "prototype": 9392,
      "##ifli": 9393,
      "##HIDMATAN": 9394,
      "Sampai": 9395,
      "kebajikan": 9396,
      "Perlindungan": 9397,
      "Es": 9398,
      "Tahan": 9399,
      "Cuma": 9400,
      "##akaian": 9401,
      "Jamb": 9402,
      "##emangnya": 9403,
      "##ujian": 9404,
      "Datang": 9405,
      "cel": 9406,
      "disahkan": 9407,
      "##ulen": 9408,
      "Sams": 9409,
      "nie": 9410,
      "##ences": 9411,
      "##unding": 9412,
      "Teluk": 9413,
      "Bumiputera": 9414,
      "isterinya": 9415,
      "KAM": 9416,
      "##engkapi": 9417,
      "RM1": 9418,
      "##ives": 9419,
      "layan": 9420,
      "BELI": 9421,
      "kebolehan": 9422,
      "Susah": 9423,
      "PERKHIDMATAN": 9424,
      "##onia": 9425,
      "terpilih": 9426,
      "Cantik": 9427,
      "##onald": 9428,
      "menghubungi": 9429,
      "MEM": 9430,
      "##anasan": 9431,
      "##come": 9432,
      "Nis": 9433,
      "pecah": 9434,
      "meneroka": 9435,
      "Contin": 9436,
      "##ibatan": 9437,
      "Kor": 9438,
      "BERN": 9439,
      "sebut": 9440,
      "John": 9441,
      "tingkah": 9442,
      "gold": 9443,
      "##GERIS": 9444,
      "INGGERIS": 9445,
      "Biar": 9446,
      "##mbangkan": 9447,
      "fail": 9448,
      "##acun": 9449,
      "inovatif": 9450,
      "merawat": 9451,
      "Calon": 9452,
      "virus": 9453,
      "Jur": 9454,
      "##upus": 9455,
      "Can": 9456,
      "Ketiga": 9457,
      "follow": 9458,
      "kor": 9459,
      "Chrys": 9460,
      "##RAH": 9461,
      "terkejut": 9462,
      "Akibat": 9463,
      "##vernment": 9464,
      "Kahwin": 9465,
      "Asal": 9466,
      "disampaikan": 9467,
      "##atalkan": 9468,
      "##abetes": 9469,
      "diletak": 9470,
      "fikiran": 9471,
      "999": 9472,
      "lawatan": 9473,
      "RO": 9474,
      "##URL": 9475,
      "##ote": 9476,
      "1000": 9477,
      "Pertahanan": 9478,
      "KOMP": 9479,
      "##ampaian": 9480,
      "##rastruktur": 9481,
      "haji": 9482,
      "##ublish": 9483,
      "Pengantin": 9484,
      "##ORAN": 9485,
      "##by": 9486,
      "Kah": 9487,
      "lari": 9488,
[...]
